#version: 0.2
क े</w>
् र
े ं</w>
ा र
न े</w>
म ें</w>
ह ै
ो ं</w>
औ र</w>
क ी</w>
र ्
स े</w>
स ्
ि य
प ्र
् य
क र
क ा</w>
त ा</w>
व ि
क ्
क ो</w>
व ा
न ्
म ा
ह ै</w>
क ा
ल ि
त ्
न ा</w>
ज ा
र ा
स ं
न ि
ह ो
स ा
क ि</w>
त े</w>
ल ा
द े
य ा</w>
प र</w>
है ।</w>
न ा
ि त</w>
िय ा</w>
ह ी
त ु
ह ा
लि ए</w>
ब ा
क ि
क र</w>
भ ी</w>
ए क</w>
त ा
क् ष
ह ी</w>
द ्
त ि</w>
अ प
ड ़
प ा
ज ि
न ही
ष ्
त ो</w>
ह ु
स म
ल ्
क ार
ज ो</w>
नही ं</w>
उ स
ल ो
त ि
प र
उ न
त ी</w>
य ा
च ा
े ं
द ि
ल े</w>
न ी</w>
है ं
स ी</w>
म ्
म ु
ज ़
द ा
श ्
थ ा
भ ा
्य ा
ग ा
क ो
र ह
थ ा</w>
म ि
य ह</w>
क ु
त ्र
ल े
प ू
इ स</w>
द ा</w>
ध ि
क िया</w>
ह ो</w>
व ह</w>
िय ा
र ू
् य</w>
है ं</w>
ल ा</w>
कर ने</w>
अ न
ार ा</w>
ह ि
य ो
ी य</w>
स क
का र</w>
ह म
त र
इ स
ख ़
िय ों</w>
व र्
है ,</w>
ल ी</w>
स ि
ार े</w>
श ा
अप ने</w>
म े
स ु
भ ार
ष् ट
अ धि
उ न्
उ प
न े
स ू
स र
त् र</w>
क ़
क ्र
च ्
ध ा
अन ु
व े</w>
ार ्
तु म</w>
हैं ।</w>
प ु
ं ग
प ्
न ों</w>
स े
क ्य
फ ़
नि र्
र ी</w>
य े</w>
त था</w>
कु छ</w>
à ¤
ओ ं</w>
ह ें</w>
व े
श ि
तु म्
कि सी</w>
फ ि
ख ा
र ि
व ्य
पू र्
क े
र ो
प्र ा
स ा</w>
ज ा</w>
द ी</w>
द् व
ग ों</w>
रू प</w>
ह म</w>
ब ं
म ै
स् था
ार ी</w>
को ई</w>
क ह
क ृ
पर ि
स ी
उन के</w>
स् त
सा थ</w>
ग ्र
मा न</w>
जि स
ज ्
ज ी
अ ं
ी न</w>
द्व ारा</w>
ु दा</w>
ग या</w>
द ू
े ।</w>
रा ज
लो गों</w>
ज ब</w>
है .</w>
त क</w>
स् व
रा ष्ट
कर ते</w>
प ह
लो ग</w>
व ा</w>
ग ा</w>
ग ु
ि क</w>
र ख
दे श</w>
अ ल्
मा न
भार त</w>
स् थ
न िय
न ी
ब ्
तुम् ह
ला ह</w>
राष्ट ्र
फि र</w>
ब े
क्य ा</w>
उ त्
ी ।</w>
र ा</w>
उस के</w>
द ो
ं ने</w>
उ स</w>
ं ग</w>
अ व
अल् लाह</w>
क् त</w>
म ं
जा ता</w>
ब ी
च ि
र े</w>
जा ए
ख़ ुदा</w>
अप नी</w>
ब ना
प्र ति
ब ि
श ्र
ज् ञ
ब हु
ग े</w>
भ ि
द ु
द ्य
म ू
द िया</w>
ढ ़
यो ग</w>
क्ष े
ल ों</w>
र ु
न् य</w>
य ु
मै ं</w>
ग र</w>
प ी
ो ं
च ु
व र
द ि</w>
ज ़</w>
वा ले</w>
ध ार
उन् हें</w>
च् छ
ी ,</w>
ज ी</w>
प् त</w>
उ न</w>
त ्य
द र्
ब ड़
कर ता</w>
हो ंने</w>
कर ना</w>
क् ति</w>
ड ा
उ से</w>
रह े</w>
दे ख
आ प
आ प</w>
प ै
ह र</w>
द ्र
ज्ञ ा
हो ता</w>
चा ह
ब ु
म ा</w>
क ों</w>
ज ै
र े
र ी
त र</w>
ड ़</w>
रह ा</w>
म ें
म ो
क र्
2 0
हु ए</w>
त ु</w>
भ ू
श ु
श न</w>
ग ि
क्ष ा</w>
सू च
ट ा
क ी
इ न</w>
ष् ट</w>
त े
ध ि</w>
सक ता</w>
बहु त</w>
सम य</w>
ब ै
बं ध
ं ड
ल ग
श े
त ीय</w>
त ों</w>
बा द</w>
1 9
ह ू
वि श्
दा न</w>
दे श
उन् होंने</w>
कर ें</w>
स मा
जा न
पा स</w>
ट ी</w>
अधि क</w>
सम ्
स् ट
द ो</w>
त ी
बा त</w>
य दि</w>
कह ा</w>
व न</w>
हम ने</w>
कार ी</w>
था ।</w>
तर ह</w>
म ी
पह ले</w>
उन की</w>
द् ध</w>
तुम्ह ारे</w>
यो ज
म ह
पूर् ण</w>
च ी
प र्
छ ो
म ी</w>
हो ने</w>
स ह
ग ी</w>
प ति</w>
प े
हम ारे</w>
स् ता
अ ध
ट ि
दि न</w>
हा ं</w>
ब ो
स भी</w>
ल य</w>
ऐ से</w>
थ े</w>
कार ्य
ग त</w>
ब द
ज न
ओ र</w>
ल ी
तु म
दू सर
हैं ,</w>
ज ो
चा र</w>
े ,</w>
द े</w>
ए व
का म</w>
अ च्छ
झ े</w>
चा हि
गा ।</w>
श ी
प ि
ह र
इस के</w>
अ र्
न् न</w>
अ न्य</w>
प्रा प्त</w>
स ब
कर ण</w>
उस की</w>
वा ला</w>
स्थ ि
हा ँ</w>
कर ें
इ न
सा म
स र्
ड ि
प्र कार</w>
ग ़
ख ु
च् च
क्षे त्र</w>
ण ा
हु आ</w>
ज़ ा
ब र</w>
प ड़
सक ते</w>
ल न</w>
जा ने</w>
कार ्य</w>
ग ए</w>
धा न</w>
व ी
ऐ सा</w>
िया ।</w>
श् च
राष्ट्र पति</w>
द्य ो
य ों</w>
वि का
क म</w>
ं ड</w>
एव ं</w>
प हु
कि ए</w>
अ गर</w>
व ै
प ो
द न</w>
हो ती</w>
नि क</w>
व ्या
ट ्
न ्या
म ार्
अ भि
भार तीय</w>
त ं
ा इ
न ु
ए ं</w>
मु झे</w>
र सू
भ े
ं ,</w>
स र</w>
क् ष</w>
ग ो
ना म</w>
े क</w>
ग ई</w>
य ी</w>
मं त्र
िय े</w>
द ी
( _</w>
ं ।</w>
वर् ष</w>
व ृ
राज ्य</w>
थ ी</w>
त ियों</w>
ए ।</w>
म त</w>
ब ढ़
क ता</w>
र ों</w>
स ो
भा ग</w>
सर कार</w>
न ,</w>
गा र</w>
्य ू
अ ब</w>
क ं
कि न</w>
च ार
ध ारा</w>
त् व
त् व</w>
लि ख
त ः</w>
म ौ
ट ा</w>
द ृ
ट र</w>
उस ने</w>
ट े
क ै
कार ण</w>
नि श्च
विका स</w>
्र ा
र् थ
प ं
स ब</w>
भा ष
ले किन</w>
ए ँ</w>
ग ी
व्य क्ति</w>
दो नों</w>
प्र े
ब न्
वर् त
तुम् हें</w>
ख ो
बा र</w>
क हा
ज ू
व ी</w>
वि शे
श ा</w>
दा र</w>
प्र दान</w>
य ू
मु ख
म हा
ऐ सी</w>
जि न
दि खा
à ¥
भ ी
थ े।</w>
जा ती</w>
व्य व
ग या
स् वा
स द
्र े
र त</w>
ज ु
स हा
वा ली</w>
ख ्
श ्य
मि ल</w>
जि स</w>
स्था न</w>
ण ्
व ल</w>
सम झ
ग्र ा
ब ारे</w>
धा र</w>
क्ष ण</w>
सं बंध
ति क</w>
आ व
द् र</w>
द ों</w>
आ र
मि ल
त ना</w>
ध न</w>
् र</w>
ज न</w>
ह े
जै से</w>
हो ते</w>
ट ी
सहा य
प्र भा
्य ा</w>
उस का</w>
। "</w>
बी च</w>
ब र
सा र</w>
हैं .</w>
जी वन</w>
च ा</w>
20 1
द ौ
ब ू
म क</w>
मे रे</w>
र ही</w>
स्था प
ल िया</w>
राष्ट्र ीय</w>
क ू
च े</w>
यो ग
t i
ई मान</w>
सा मा
ड़ ी</w>
स् था</w>
में ,</w>
ड़ े</w>
आ य
िया ं</w>
इ ं
ड़ ा</w>
ज़ ि
ज्ञा न</w>
हु ई</w>
प्र योग</w>
म ों</w>
द र</w>
उन का</w>
ह में</w>
व र</w>
वि ष
स् प
के वल</w>
उ ठ
स् त</w>
बं ध</w>
o n
ड र</w>
जिस में</w>
प त्
अ ल
श ो
ता कि</w>
त्र ों</w>
. .
प्र त्य
त र्
ए ,</w>
ध ्य
आव श्य
प्र ो
ट े</w>
यु क्त</w>
र ब</w>
व ही</w>
निर् धार
श क</w>
न ो
क्य ों
स फ
रा न</w>
ल गा
भि न्न</w>
कर ो</w>
उस ी</w>
अ न्
हम ारी</w>
अप ना</w>
नि क
ही ं</w>
वा द</w>
सब से</w>
म ,</w>
इ से</w>
ए क
दूसर े</w>
फ ्
वा लों</w>
ं त</w>
ार ों</w>
य न</w>
उत् पा
उप योग</w>
ाइ ल</w>
ता ओं</w>
कृ त</w>
स्थि ति</w>
अ थ
क ल्
हो ।</w>
क्र िया</w>
ल ब्
ं क</w>
दे ने</w>
श् य</w>
ख ि
प्र ति</w>
स् तु
वा र</w>
पै दा</w>
अधि निय
श्र ी</w>
प श्
िय ो
थ ी।</w>
क ें
इस में</w>
बड़ ा</w>
ड ी
मा म
कर े
आ ई
जा ना</w>
क ़</w>
जि न्
ट ्र
कर ो
ल ता</w>
ड े
जि से</w>
वा स</w>
च े
कं प
ब ल्
मा ण</w>
त म</w>
ब ी</w>
घ ा
हो ,</w>
न् तु</w>
उप लब्
िया ँ</w>
आ ं
सूच ना</w>
म े</w>
स्व ी
जा ते</w>
अथ वा</w>
ल )</w>
उ द्
सं ख
सं ग
द र
दे ता</w>
त ै
ज े
ले ख
आ ज</w>
म न</w>
ढ ़</w>
क्र म</w>
त् य</w>
त ्या
हो गा</w>
स न</w>
ब ना</w>
फ ़</w>
प त्र</w>
ध ी</w>
a m
त ब</w>
वर दि
उस से</w>
पर वरदि
परवरदि गार</w>
क्यों कि</w>
पूर् व</w>
वि ध
उन से</w>
क ॉ
कर ा
त ौ
नि का
हो ंग
ख े
i n
मा ल</w>
ब ्र
न ीय</w>
पहु ँ
श ब्
20 0
a n
से )</w>
ल ें</w>
ल ने</w>
ब च्च
ार ा
कहा ,</w>
पु न
इ न्
न िया</w>
द ्या
न -
ब स</w>
क िया।</w>
क ई</w>
पूर् व
च ित</w>
ची ज़</w>
कर ती</w>
बड़ ी</w>
भा व
म ित</w>
सं स्
उन में</w>
मे री</w>
भ ु
सहाय ता</w>
श ी</w>
बै ठ
ब रा
ल ं
ह ित</w>
कु ल</w>
प न</w>
था ,</w>
ध ्या
प्र का
सद स्
प ार
ण ी</w>
शा मिल</w>
वे श</w>
दा य
क भी</w>
ट न</w>
कृ ति</w>
या र</w>
न ू
वा स्त
ए स
इस से</w>
ल िये</w>
मि क</w>
श ै
सु र
ष ण</w>
इस लिए</w>
बल् कि</w>
( ऐ</w>
थ ी
प ता</w>
म द
ष् ठ
र च
विशे ष</w>
ें ग
ल ू
सक ती</w>
सं देश</w>
गया ।</w>
सूच ी</w>
त ो
क ह</w>
ह ों</w>
ं भ</w>
फ ा
म ृ
त् ता</w>
छ ा
ज हां</w>
ग र्
जि न</w>
कह ते</w>
अ ग
ं च</w>
ध र्
य हाँ</w>
क ौ
शि क्षा</w>
ल त</w>
आ गे</w>
हा र</w>
वि भिन्न</w>
अं तर
त ें</w>
क ,</w>
स्थ ित</w>
लि त</w>
य ही</w>
घ ट
विश् व
स न्
जिस के</w>
चाहि ए।</w>
वि त</w>
उन को</w>
त्र ा</w>
्य ों</w>
योज ना</w>
ल ,</w>
ड ी</w>
भ व</w>
ग ी।</w>
निर् माण</w>
रसू ल</w>
वर् ष
त्व पूर्ण</w>
सम ु
ं त्र
स मान</w>
अ ति
अध ीन</w>
त् मक</w>
इस का</w>
सि ं
फ़ ि
हो ना</w>
गा ं
कर ने
सम ू
फ़ ाइल</w>
कि ता
लि क</w>
ता न</w>
am e</w>
है ?</w>
प ृ
या द</w>
p r
सा इ
परि वर्त
मार् ग</w>
पू रा</w>
ष्ट ि</w>
साम ने</w>
दौ रान</w>
सं बंध</w>
ल ै
क् ति
क् त
तर फ</w>
संख ्या</w>
ि य</w>
इ सी</w>
उस में</w>
देश ों</w>
0 0</w>
ti on
ों ,</w>
ह त</w>
मु ख</w>
आप को</w>
न ई</w>
आ धार</w>
वि द्या
लो क
दु निया</w>
फ ो
कर के</w>
क्ष ित</w>
गा ,</w>
ख ा</w>
से वा</w>
तै यार</w>
प्र ौ
म ीन</w>
ध ु
उपलब् ध</w>
र ू</w>
संबंध ित</w>
स ौ
ज ग
प्रत्य ेक</w>
बा हर</w>
प ी</w>
निश्च ित</w>
ंग ्रे
औ र
मंत्र ी</w>
ण ों</w>
न् त</w>
ह न</w>
िया ,</w>
भ ा</w>
ल ड़
म हि
ह रा
दे ते</w>
त न</w>
वि क</w>
ता ,</w>
वा न</w>
भाष ा</w>
द् ध
घ र</w>
वर ण</w>
फ ै
चाह ते</w>
ज ारी</w>
अध ्य
प्र या
च् च</w>
स्व य
पी छ
सा ं
ब न</w>
जा य
ध ी
अल ग</w>
तुम्ह ारी</w>
अनु सार</w>
ज े</w>
प्र ार
वि चार</w>
बड़ े</w>
द्यो गि
भ र</w>
निश्च य</w>
अव सर</w>
रसू ल)</w>
त क
पा नी</w>
पू री</w>
ज ब
झ ु
भ ो
ब ता
फ े
ण ा</w>
.. .</w>
विष य</w>
ध र
द् धि</w>
श्र े
अच्छ ा</w>
स्त र</w>
ज ्या
के न्
अ त्य
ह ्
वि त्
स् त्र
ल ो</w>
आप के</w>
ग ै
ना ओं</w>
ठ ी
चाहि ए</w>
बना ने</w>
ह री</w>
उठ ा
अ ज़ा
का ल</w>
मा ण
प्रौ द्योगि
व ार
य र</w>
ति हा
ष् ठ</w>
हि ं
हू ँ</w>
स्थाप ित</w>
पर ी
क् स</w>
e n
ियो ज
ल ॉ
श क्ति</w>
ल ु
e r
ं तु</w>
वा ह</w>
न )</w>
ल ौ
सा न</w>
मू ल
पर ियोज
ध्य म</w>
ज रू
सामा न्य</w>
चु न
कार ्
ग े
अं तर्
ट ो
ग ्
ष् य</w>
दू र</w>
त ीन</w>
प्र णा
न्या या
अन ेक</w>
बढ़ ा
स्वय ं</w>
व ज
फ ी</w>
ख ुदा</w>
मुख ्य</w>
उ द्यो
म ार
ना ।</w>
प ा</w>
हो गा।</w>
ति ,</w>
ऊ पर</w>
तुम्ह ारा</w>
ख ंड</w>
वा य
ं क
क्ष ि
सर् व
आ त्
ब न
क म
मह त्वपूर्ण</w>
में )</w>
प ढ़
क़ ा
ं च
प्रति श
शु रू</w>
विश् व</w>
ख़ ि
ए म
कृ ष
फ़ ो
चाह ता</w>
परि णा
त ,</w>
हे तु</w>
व ि</w>
आ र्थ
बा द
ला भ</w>
मै ंने</w>
क्ष ा
म र
ार् थ
श री
ें गे</w>
रख ा</w>
जिस ने</w>
मौ जू
घ ो
नी ति</w>
ता ।</w>
धि क</w>
ग ण
ब ल</w>
िय ो</w>
धा न
य हां</w>
क्षे त्रों</w>
हि स्
प्र क्रिया</w>
ज़ ा</w>
दर् शन</w>
ए न
उ ल्
सं स्था
वि द्य
तं त्र</w>
वृ त्
रा त</w>
दे ह</w>
वा दी</w>
व्यव स्था</w>
भ वन</w>
बे शक</w>
जिस का</w>
ल क्ष
को र्
अज़ा ब</w>
ध्या न</w>
ज़ मीन</w>
म गर</w>
नी चे</w>
ार ी
च ौ
हि न्
ठी क</w>
आर्थ िक</w>
पा र</w>
दि ष्ट</w>
पीछ े</w>
सम र्थ
क्ष म
ब ा</w>
ला ग
ल ना</w>
स ित</w>
कि न्तु</w>
जब कि</w>
अ मे
प्रतिश त</w>
बे ह
पु स्त
आ द
पि छ
जा ए</w>
विश् वास</w>
बि ना</w>
धर ती</w>
मद द</w>
हा थ</w>
उ च्च</w>
क ठ
प ि</w>
ना ,</w>
विशे ष
ले कर</w>
ई ।</w>
l a
नि त</w>
ज न्
स्प ष्ट</w>
से वा
( 1
प्र मुख</w>
क ला
पो र्
अमे रि
त )</w>
कार ्या
म ि</w>
अ तः</w>
स ार
वि ज्ञान</w>
प्रौद्योगि की</w>
इस की</w>
मा ध्यम</w>
ल् डर</w>
श ित</w>
तौ र</w>
र ह</w>
जाए गा</w>
है ;</w>
वि ंड
या त</w>
च ल</w>
म र्
बै ंक</w>
किता ब</w>
ल् य</w>
स् ते</w>
निर् दिष्ट</w>
कार ों</w>
व ों</w>
स ल
व ्य</w>
अधि कार</w>
ला ने</w>
जा र</w>
तर ी
पश् चा
ग ति</w>
लग भ
क़ ी
थ ो
ड़ ा
द्र ीय</w>
निय ंत्र
मे रा</w>
स भा</w>
ई मान
का म
ए ँ
इन कार</w>
क ल</w>
शा सन</w>
तुम से</w>
पर् या
क़ ौ
नि म्
सम स्
i t
र ,</w>
प रा
हु आ
आ का
मू ल</w>
स ारे</w>
क ल
लगभ ग</w>
कंप नी</w>
ज्या दा</w>
प न्न</w>
द ारी</w>
नि शा
a l
थ े,</w>
4 4
ग्र ह</w>
सु न
ल ते</w>
संग ठ
भा ग
स ै
बना या</w>
जन ता</w>
का फी</w>
श ं
त्र ु
ग ं
प्र बंध
विश्व विद्या
पु रा
थ े
आ दि</w>
आ ने</w>
द िया।</w>
अ भ
आ धार
त नी</w>
प ित</w>
देख ा</w>
लाग ू</w>
अधिनिय म,</w>
सामा जि
ले ख</w>
को शि
त ्</w>
हो कर</w>
प्र ती
t r
चाह े</w>
क्य ों</w>
ब ार
ध े</w>
जो ड़
जान कारी</w>
अच्छ े</w>
ब े</w>
अ भी</w>
म ज
की )</w>
न ि</w>
अच्छ ी</w>
भू मि</w>
त्र ि
अति रि
जै सा</w>
प्र स्तु
स ों</w>
नि स्
प स</w>
अव धि</w>
भ र
वि धा
अर् थ</w>
दि ए</w>
रा श
कृष ि</w>
का नू
व हां</w>
ल गे</w>
रख ते</w>
जान ता</w>
वि चार
प्रणा ली</w>
ध ा</w>
इ स्
ं श</w>
त ू</w>
कार्य क्रम</w>
क ट</w>
सि र्
क़ ु
माम ले</w>
ष ित</w>
दे ना</w>
च र
पर् क</w>
परिवर्त न</w>
ता र</w>
देश ी</w>
निर् ण
ण ,</w>
i c
कर् ता</w>
आवश्य क</w>
रा म</w>
रच ना</w>
सि वा</w>
ला ए</w>
त ने</w>
जाए ँ
आ य</w>
सा हि
दे ख</w>
उ दा
ला या</w>
लिख ित</w>
क हीं</w>
उस को</w>
ज ों</w>
ना थ</w>
सा ल</w>
वि धान</w>
फ़ो ल्डर</w>
ल ू</w>
कर् म
फ र
द ू</w>
ढ ा
स्वी कार</w>
प ार्
क ट
सा थ
h t
ल् ली</w>
समू ह</w>
कोर् इ</w>
मू ल्य</w>
ट् टी</w>
सम ि
जिस से</w>
ड ल</w>
ख़ ु
क्र म
न ए</w>
न् द</w>
समा ज</w>
स् ति
ध ्य</w>
बरा बर</w>
र स्
उत् तर</w>
प्रया स</w>
रह ने</w>
e e
शब् द</w>
क ी।</w>
कर े</w>
( i
सं देह</w>
ल ती</w>
ज ल</w>
क्र िया
न ियों</w>
ट र
# 44
प्रभा व</w>
#44 ;</w>
ज वा
सि क</w>
तुम ने</w>
आ देश</w>
नि ष्
आवश्य कता</w>
मं दि
अनु सं
त -
ग ति
ें ।</w>
लि ए,</w>
क़ौ म</w>
था .</w>
ध ित</w>
हा ल</w>
ति म</w>
अधिनिय म</w>
ब र्
ना ग
श ों</w>
हू ँ
न या</w>
उ पा
ला ल</w>
धर् म</w>
उ म्
छ ु
वि धि</w>
स ,</w>
ख़ ा
कह ने</w>
क्षम ता</w>
ए .</w>
ल गा</w>
à¥ 
न ं
कल् प
ं जी</w>
छो ड़</w>
a b
ग ये</w>
जग ह</w>
चु के</w>
न न</w>
उद्यो ग</w>
पश् चि
1 8
र ंग</w>
सुर क्षा</w>
कल् प</w>
य ,</w>
न ल</w>
वि शि
ड ियो</w>
भू मि
मा र</w>
ज ित</w>
र् ड</w>
प्र धान
शी र्
नही ं,</w>
न ्</w>
म नु
प क्ष
राश ि</w>
प क</w>
o p
रह ते</w>
ट ों</w>
प द
द् धा
छो ड़
रख ने</w>
धार ण</w>
न ता</w>
à¥ à¤
क )</w>
हा ला
हु क्
सामाजि क</w>
कृ तिक</w>
ले ने</w>
ब ह
आ योज
जान ते</w>
िय न</w>
ए क्
वर्त मान</w>
फ ू
छ ि
या तना</w>
वि क
वर्ष ों</w>
से ,</w>
नही ं
गा .</w>
o r
ड ्
आ ई</w>
जिन् हें</w>
ः %</w>
य ं
अंतर् गत</w>
ध ्
क् तियों</w>
क म्
ब द्ध</w>
रा ह</w>
्र ो
के )</w>
स्वा स्थ
ना ट
उप धारा</w>
ज़ ी</w>
इ तिहा
द क्षि
आ ख़ि
स् ट</w>
या त्रा</w>
भाव ना</w>
पू छ
वर् ग</w>
दे श्य</w>
दु र्
मु द्र
झ ा
पा द
ड र
च ै
स ही</w>
ज ह
सिर् फ</w>
य क़ी
पह चा
ग ें</w>
म त
हम ारा</w>
दूसर ी</w>
रु प
वास्त व</w>
द म</w>
नि र
उत्पा दन</w>
प्र शि
ज मा</w>
इ ंड
कू ल</w>
वा ई</w>
ऋ ण</w>
र् य</w>
न व
e s
अतिरि क्त</w>
चु का</w>
तुम को</w>
रि श्
ख ्या
सं पर्क</w>
झु ठ
स च्च
ग य
निर्धार ित</w>
' '</w>
न त</w>
अनुसं धान</w>
स्त ु</w>
ग यी</w>
े गा</w>
परियोज ना</w>
मू सा</w>
है )</w>
व स्तु
हम े
मा ना</w>
प् ति</w>
ल् म</w>
आ कार</w>
सम् बन्
अ ंग्रे
घ ु
प क
व ार्
सं र
व हाँ</w>
अ स
प्र माण
सम झ</w>
न ै
उद् देश्य</w>
उत् तर
अधि कार
हुक् म</w>
भा व</w>
दा य</w>
पु र</w>
अप े
मु सल
य क</w>
ट ल</w>
सह योग</w>
द् य</w>
k g
पर न्तु</w>
करे गा</w>
जिन के</w>
त रा
1 0
जा न</w>
प्र श्
kg m</w>
स ार्
ल -
द गी</w>
व्य क्ति
यु द्ध</w>
प्र थ
प्रस्तु त</w>
व स्तु</w>
है ।"</w>
च र्
त ू
वि भाग</w>
मंत्र ा
गु ण
सं सा
उदा हर
ो र</w>
न्याया लय</w>
बेह तर</w>
न ही</w>
विक सित</w>
अधि क
ड ॉ
श र्
फ ्र
क्षे त्र
रो ध</w>
क्ष म</w>
कि त्
निर्ण य</w>
दृ ष्टि</w>
ू ं
ब्र ि
बच्च ों</w>
सक ्र
हमे शा</w>
सफ ल</w>
च न</w>
कौ न</w>
t h
स्ता न</w>
व्या पार</w>
दि ल</w>
वर् ण
शी ल</w>
देख ते</w>
ए स</w>
जिन् होंने</w>
म् ब
रि क</w>
शरी र</w>
ना एं</w>
प्र स्ता
अ ग्र
वि देशी</w>
होंग े</w>
ला इन</w>
सी मा</w>
प्रधान मंत्री</w>
य त</w>
सदस् य</w>
र -
ला ई</w>
ग म</w>
इस् ला
स् ‍
व क्त</w>
लो क</w>
वी ं</w>
ट ै
फ ल</w>
कै से</w>
अधि कारी</w>
स्था नीय</w>
निर्धार ण</w>
अ ला
स्वास्थ ्य</w>
सु धार</w>
आ ग</w>
ग्रा म</w>
19 9
परिणा म</w>
संबंध ी</w>
वा स्ते</w>
n ame</w>
) ,</w>
द् वि
द स्ता
क ला</w>
ह क़</w>
ग्र ी</w>
थ ी,</w>
झ ू
पोर् ट</w>
त ृ
वृ द्धि</w>
इतिहा स</w>
हू ं</w>
त्र ता</w>
अप ना
पा लन</w>
ार ो
आधार ित</w>
o m
राज ्य
दि ल्ली</w>
करें ।</w>
अं तिम</w>
मान ्य
कि )</w>
प्रथ म</w>
प्रा धि
क़ ि
कें द्र</w>
पर ंतु</w>
ह े</w>
बद ला</w>
N ame</w>
ज ल्
a r
क् ता</w>
न ौ
सा झ
त हत</w>
चि कित्
प्र देश</w>
जिस की</w>
पु रु
गु ना
कि स</w>
े )</w>
मान व</w>
राष्ट ्र</w>
प्र योज
जी व
आ वे
बना ए</w>
दे व
दस्ता वे
म ति</w>
क ी,</w>
अ नि
त त्
भा ई</w>
ऊ र्
र् च</w>
सिं ह</w>
विशि ष्ट</w>
ज ल
हू ं।</w>
समा प्त</w>
हो गी</w>
वा स
ज़ि ल</w>
लग ता</w>
सं युक्त</w>
पत् ति</w>
आ या</w>
अ प्र
मू र्
मौजू द</w>
क िया,</w>
वित् तीय</w>
न िया
या न</w>
बं द</w>
तक नी
निस् संदेह</w>
à¤ 
विश्वविद्या लय</w>
स द</w>
वे ब
निय म</w>
छ वि</w>
स् क</w>
े द</w>
म ॉ
ई ,</w>
लि म</w>
इ स्त
भु ग
ह ार
वा द
सि द्ध</w>
मृ त्य
पुन र्
प्रे र
कृ प
जह न्
नि वेश</w>
भे ज
ट ू
स्थाप ना</w>
रू प
तर ण</w>
ं ति</w>
का )</w>
पड़ े</w>
च ी</w>
च ीन</w>
व त</w>
वा सी</w>
छो टे</w>
ड े</w>
साइ ट</w>
अ म
न्या स</w>
ज हाँ</w>
अर् थ
प ौ
प्र वेश</w>
स्व रूप</w>
ना ज़िल</w>
बा हरी</w>
खो ज</w>
सर कारी</w>
प्र दर्
ल क</w>
फ ी
op tion
या ।</w>
ड ा</w>
ू ब</w>
हैं ?</w>
सि ल</w>
म ध्य</w>
रह ता</w>
द ारों</w>
ग्र ह
आ ए</w>
( 2
सं घ</w>
आर ंभ</w>
भूमि का</w>
पह ली</w>
द ें</w>
ला ख</w>
योग ्य</w>
à¤ ¾
पै ग़
नि धि</w>
क िये</w>
त ियां</w>
ष्ट ि
पिछ ले</w>
कठ ि
द या
मे ल</w>
सक्र िय</w>
म ही
ब ्रा
ट ि</w>
िय म</w>
ड़ ों</w>
1 1
परि वार</w>
an s
न ्यू
गी त</w>
वै ज्ञा
नियंत्र ण</w>
क़ या
सहाय क</w>
च य
क्र ा
स ्रो
मंदि र</w>
फि र
. 201
ंग ा</w>
ज़ रू
हिस् सा</w>
ण ी
दि नों</w>
/ pr
उदाहर ण</w>
ॉ र्
पर े
सं शो
कर् म</w>
सह े
e s</w>
अनु मति</w>
पा ल</w>
सं विधान</w>
पा ठ
का ल
मनु ष्य</w>
पूर्व क</w>
ा ई</w>
tr ans
ष क</w>
न ्य
इस्त े
लक्ष ्य</w>
म )</w>
स त्य</w>
उत् पन्न</w>
ब त</w>
उप यो
- ऊ
भी )</w>
क़ ्
सं भव</w>
d o
ल र</w>
ज्ञा त</w>
वि भा
कृप या</w>
दृ श्य</w>
ज़ र</w>
समर्थ न</w>
आ धु
लो ड</w>
न क</w>
राष्ट्र प
क्ष क</w>
ण् ड</w>
सम र्
trans la
option al
( optional
क -
ज़ े</w>
मज बू
दि व
सं घ
रख ता</w>
सु निश्चित</w>
क िया
ग िक</w>
छ ्
ट ु
मि टा
सा य
ण ि
समि ति</w>
को ,</w>
आ समान</w>
म -
क् र</w>
मा ँ
श्र ी
न् व
सार् वज
भ ौ
अनु भव</w>
वा पस</w>
व ो</w>
ग े।</w>
जै सी</w>
भुग तान</w>
( और</w>
ग ल</w>
नही ं।</w>
इ तना</w>
आ म</w>
त े।</w>
ह स्ता
ार् थ</w>
सं स्थान</w>
मि ला
क्र ि
(1 )</w>
पर् य
त् त</w>
ण् श्
ष् -
क वि
ण्श् छ्
-ऊ ण्श्छ्
ए ं
à¤¾ à¤
-ऊण्श्छ् ष्-
ऊ ँ
साम ग्री</w>
? "</w>
ह रे</w>
उन पर</w>
रह े
फ़ ा
इस्ते माल</w>
प्रार ंभ</w>
ी करण</w>
. 0
आद मी</w>
भू त</w>
से ट</w>
सु विधा
ें ट</w>
रु प</w>
खा ते</w>
ए श
सि द्धा
भे जा</w>
प क्ष</w>
सार्वज निक</w>
ज ्य
भी तर</w>
बा जार</w>
त् सा
ग ठ
श् वर</w>
प्रबंध न</w>
स्था यी</w>
1 2
लू म</w>
पा या</w>
प द</w>
डा क</w>
र ंग
पर ,</w>
क मा
स ला</w>
खा ता</w>
ंग ्
उ द्य
मृत्य ु</w>
ऋ -ऊण्श्छ्ष्-
स्ट े
पु रस्
ए फ
मंत्रा लय</w>
पू रे</w>
ें ,</w>
निय ु
ध् व
ग र
अध्य यन</w>
ने वाले</w>
ले ते</w>
माम लों</w>
का ंग्रे
बच्च े</w>
स्ट ्र
मु ँ
मा त्रा</w>
जिन में</w>
र क्षा</w>
ग्रा मी
ल् क</w>
दि शा</w>
 à¤
भ ्र
ख री
अत्य न्त</w>
य द</w>
निम् न
य ता</w>
मा नों</w>
बद ल</w>
विंड ो</w>
ं चा
खे ल</w>
वि स्ता
pr o
प हा
सर् वर</w>
राज ्यों</w>
प सं
सं के
डा ल</w>
है -
करें .</w>
हुआ ।</w>
प्रशि क्षण</w>
श ख्
यक़ी नन</w>
स का
बा न</w>
इ च्छ
बा तों</w>
प्र कृति</w>
साहि त्य</w>
ं भ
अप रा
मा लूम</w>
ला इ
वि कल्प</w>
त ारी
जाए गा।</w>
l e
ब च
अ क्
अं त</w>
सह ित</w>
रो क
n o
अर् था
ेंग े।</w>
टि ंग</w>
स त्ता</w>
जरू रत</w>
ने ट
सा धारण</w>
बं गा
म न
प्र गति</w>
उ च्च
स् त्र</w>
शा स
नी तिक</w>
ं स</w>
स क्षम</w>
मा त्र</w>
ल यों</w>
l y</w>
वर् ती</w>
च ले</w>
विस्ता र</w>
r e
उ चित</w>
म य</w>
ड ो
ार ि
सम ारो
र् जी</w>
ज रा
वा ही</w>
i )</w>
ने वाला</w>
शख् स</w>
मि ले
बै ं
गि र
हो गी।</w>
यू रो
ब ढ़</w>
खि ला
देख ने</w>
च ू
स्व तं
च ो
आ तं
19 6
से ना</w>
पश्चा त</w>
जा ंच</w>
सं दर्
ंग े</w>
श हर</w>
राष्ट्रप ति,</w>
विध ा</w>
दक्षि ण</w>
को )</w>
अ र
करो ड़</w>
ऊर् जा</w>
ठ ा</w>
त्रु टि</w>
री ब</w>
मुँ ह</w>
भ ग
सं सद</w>
स ृ
ए )</w>
' %</w>
1 0</w>
सदस् यों</w>
बा तें</w>
स म</w>
a t
मह त्
ग ई।</w>
का न</w>
रो ग</w>
ग्रामी ण</w>
आ ँ
क़या मत</w>
कें द्रीय</w>
ब चा
व्या पक</w>
फ ाइल</w>
सा ह
तर ित</w>
ल ी,</w>
आ वा
it y</w>
बो र्ड</w>
ष् ण
भाष ा
कोशि श</w>
मार् ग
ई -
समस् या</w>
प्रा थ
: /
पा ठ</w>
फ ु
वेब साइट</w>
वि स्त
इन में</w>
अधि का
च ारी</w>
न दी</w>
म् बर</w>
दृ ष्टि
य ल</w>
े .</w>
ज र</w>
भ व
द्यो गिक</w>
वाय ु</w>
ब यान</w>
- #
ल ्यू
प्रो त्सा
ह रा</w>
श ल</w>
भार ी</w>
संगठ न</w>
खु द</w>
tion )</w>
व्य क्त</w>
म् मे
िया न</w>
सर्व ो
(optional ,</w>
ौ ती</w>
दाय ि
चि त्र
वज ह</w>
नि वे
19 5
पू ंजी</w>
० ०
म रा
परि ष
गां धी</w>
प्रश् न</w>
जन् म</w>
वृत् ति</w>
वि वरण</w>
सा फ</w>
ों )</w>
न मा
क मी</w>
य म</w>
स त</w>
महा न</w>
पूर् ति</w>
2 0</w>
चि त्र</w>
न वा
शा यद</w>
करें गे</w>
पूर् ण
बि ल्
पु कार
सं रचना</w>
ण् ड
लि स</w>
क्ष र</w>
t p
एक -
ी ल</w>
शि का
प्रे म</w>
पहचा न</w>
दे ती</w>
पुन ः</w>
नि जी</w>
चय नित</w>
सक े।</w>
सफ लता</w>
कांग्रे स</w>
कि ंतु</w>
हैं )</w>
घट ना</w>
म ै</w>
टा इ
आय तों</w>
द य</w>
पृ ष्ठ</w>
कर )</w>
d i
जाए ँ</w>
योग दान</w>
ख ों</w>
्यू टर</w>
ने ,</w>
१ ९
स ख्
दिखा ई</w>
मु ं
आधु निक</w>
औ द्योगिक</w>
श ता
ह टा
स वा
कानू न</w>
no t</w>
मु द्
जवा ब</w>
ड ्र
मो ह
ht tp
ख़ ्
n ee
द शा</w>
लिख ा</w>
मु क्त</w>
व्यव हार</w>
प्र कट</w>
o n</w>
मा ंग</w>
ज ें</w>
भ वि
निर्धार ि
मि न
ग्रह ण</w>
जो र</w>
19 4
न ियाँ</w>
0 00</w>
र ु</w>
transla tion)</w>
व्य क्तियों</w>
ग़ ा
प्रभा वित</w>
दिखा एँ</w>
बद ले</w>
वास्त विक</w>
मु स्
ला ओं</w>
प्रका श</w>
ल कर</w>
à¤ ¿
ज ्य</w>
ब ्या
अध ्या
" ऐ</w>
ए ल
आयोज ित</w>
पुरु ष</w>
सो च
19 8
रा जा</w>
निर् यात</w>
ट र्
ज र्
शता ब्
ह ृ
वि शा
या ,</w>
नेट वर्
ू ँ
ग ी,</w>
ला ,</w>
भवि ष्य</w>
चि ं
च ं
ें .</w>
आ र्
सुर क्षित</w>
ला ते</w>
मं डल</w>
स्वतं त्रता</w>
रा य</w>
उ त
ब ू</w>
बर ,</w>
न गर</w>
प्रका शित</w>
च ला</w>
स ला
चर ण</w>
अमेरि का</w>
द बा
क ीय</w>
शे ष</w>
त त्व
मह ारा
ट ने</w>
http :/
स्रो त</w>
रु द्ध</w>
मी टर</w>
परी क्षा</w>
सु विधा</w>
b ab
कर ना।</w>
जा ओ
म नो
पा त</w>
ट कर</w>
आतं क
ह द</w>
समारो ह</w>
द ार
C ity</w>
रि पोर्ट</w>
न्या य
थ ों</w>
स्प ष्ट
व ं
समझ ौ
पर ं
डि स्क</w>
वा ह
nee d</w>
य द्य
सम् मे
ना त्मक</w>
pro bab
दो ,</w>
probab ly</w>
do es</w>
स् ती</w>
à¥ à¤
स त
फर मा
a s
ने )</w>
हा सिल</w>
वैज्ञा निक</w>
म द</w>
ह ार्
ज ें
समु दाय</w>
श ू
अव श्य</w>
पश्चि म</w>
स् थ</w>
आप की</w>
दे गा</w>
क्र ो
ग ृ
फ ा</w>
इ का
है ः</w>
स -
जा ओ</w>
वि न
म र</w>
प ों</w>
लो ग
राज नीतिक</w>
कम् प
ले ,</w>
बा ज़</w>
निम्न लिखित</w>
आवे दन</w>
स ॉ
महि ला</w>
जा ति</w>
च र</w>
का ,</w>
पुरस् कार</w>
ब नी</w>
जाए गी</w>
पुस्त क</w>
ल ियों</w>
पर्या प्त</w>
न् द्र
ं तर</w>
निक ल</w>
दूसर ा</w>
ं ट</w>
व री</w>
को ण</w>
य -
संदर् भ</w>
र ल</w>
चु की</w>
ब ख्
गि रो
र ख</w>
मान व
पि ता</w>
कर ण
ब ॉ
19 7
सं चा
ला भ
बु रा</w>
ढ ंग</w>
मुख र्जी</w>
न् द
1 5
ज् ञ</w>
ह ा</w>
गुण व
s t
घो ष
3 0</w>
र ता</w>
निर्धारि ती</w>
पृ थ
दो लन</w>
ते रे</w>
रा नी</w>
ब धा
नि देश
द्व ी
तरी के</w>
यद्य पि</w>
मा इ
दिव स</w>
केन् द्रीय</w>
स ल</w>
ंक न</w>
जहन् नु
प्रभा वी</w>
प द्ध
श्रे णी
न र</w>
ज़ ु
शी घ
समस् या
( के</w>
चर् चा</w>
प्रस्ता व</w>
द ल</w>
सेवा ओं</w>
फ़ ाइ
प्र ण
सी धे</w>
ते ,</w>
ख )</w>
ला गत</w>
श र
स ब्
पे श</w>
ने क्
पं चा
सूच ित</w>
अ त्या
ेंग े,</w>
शा ली</w>
ब ौ
रख ना</w>
आख़ि रत</w>
वार् ष
ज्ञ ा</w>
s '</w>
अनि वार
à¤¿ à¤
m en
सम् मि
शब् दों</w>
कह ना</w>
) :</w>
प्रा कृतिक</w>
बंगा ल</w>
मा ने</w>
नाट क</w>
अला वा</w>
ना म
कार्या लय</w>
ही म</w>
ए ल</w>
उप स्थित</w>
स ारी</w>
आत् म
कें द्र
ष्ट ्र
ध ार्
क्रम ण</w>
पा ने</w>
निक ट</w>
< s
स न्</w>
बा प</w>
अ ना
संस् कृति</w>
म ारी</w>
निर् वा
इ यों</w>
निर् भर</w>
ज़ि न्
o l
सम ृ
मि ला</w>
ध ियों</w>
गा ह</w>
भ ी,</w>
य ें</w>
इ ला
भा गी
वि रुद्ध</w>
ध नों</w>
जाए ।</w>
ठ हरा
कि न
फ र्
निर् मित</w>
लै ंड</w>
ल ब</w>
मुद्र ा</w>
सी मित</w>
उम् मी
आ उ
पं जी
अ ंग
थ ि</w>
कि ंग</w>
ँ कि</w>
ब ने</w>
और )</w>
प्र िय</w>
n ic
बैठ क</w>
सं स्था</w>
सं पत्ति</w>
ऑ फ</w>
क्ष ्
ग ौ
गति विध
ज़रू र</w>
मह त्व</w>
यं त्र</w>
श् त</w>
ए च
आ यात</w>
अग ले</w>
सा त</w>
स् तर
नमा ज़</w>
ृ त</w>
पसं द</w>
रो ज
( आ
ग़ र
कल्प ना</w>
चि ह्
अ ता</w>
हि दाय
क नेक्
सी मा
<s ></w>
हिन् दी</w>
न ें</w>
i l
बु रा
न तम</w>
प त्र
ख़ बर</w>
द ीन</w>
ट् स</w>
ँ च</w>
चु ना
स् कूल</w>
लि ंग</w>
दर् शा
च यन</w>
प ॉ
रह ो</w>
उत्पा द
बन् दों</w>
पत् थ
हु ए,</w>
संसा धन</w>
ल िया।</w>
0 0
प्रमाण पत्र</w>
आ ती</w>
ता -
बधा ई</w>
फ्र ी
ख तर
प थ</w>
पा दन</w>
गर् इ</w>
उत्पा द</w>
शु ल्क</w>
आ शा</w>
ल म्
कि सा
काल ीन</w>
कार् ड</w>
सं पाद
त ी।</w>
च्छ ेद</w>
चार ियों</w>
ध ों</w>
क ड़ी</w>
आ ता</w>
वे द
e r</w>
न र
सि स्ट
ने ट</w>
शै ली</w>
सं गीत</w>
ख ड़े</w>
ने -
ट ,</w>
धार् मिक</w>
ल ग</w>
क्र े
वी डियो</w>
न ो</w>
आप का</w>
बा ं
हो गा,</w>
ठ ा
आ योग</w>
शु भ
र ब
गया .</w>
ह ,</w>
संर क्षण</w>
रा म
वै श्
ं ख
जन क</w>
न सी
इ बरा
हिदाय त</w>
र कम</w>
उप भो
लेख ा</w>
प ल
जी व</w>
तुम में</w>
ज हा
वि वर
प्र दर्शन</w>
पहु ंच
निर् दे
फ़ ॉ
नै तिक</w>
लि का</w>
प ण</w>
केन् द्र</w>
कर नी</w>
अन ्य
वित् त</w>
वे यर</w>
ग्रा ह
ू प</w>
ख ी</w>
आ कर्
भा र</w>
मे हर
फ ल
प् ता
चिकित् सा</w>
नेटवर् क</w>
प्रण ब</w>
दू री</w>
जल् दी</w>
का ओं</w>
म क्
प्रति ष्ठ
छ ू
तुम पर</w>
स के</w>
चुन ें</w>
उन् हीं</w>
्य ता</w>
र हा
उ ल
अ ह
एक् स
सम्मे लन</w>
के ट</w>
थी .</w>
ब्रि टि
कार्य ों</w>
मु झ
मं ड
स् क्र
म ध्य
पड़ ा</w>
1 6
. in
आका श</w>
प्र धान</w>
दि लों</w>
क ट्
आ ते</w>
अधिकार ियों</w>
श्रेणी ः
मजबू त</w>
सम् मान</w>
क दम</w>
वर्ण न</w>
ली -
प्रा चीन</w>
पा ंच</w>
क त</w>
अधिका ंश</w>
क्र मों</w>
1 5</w>
ब ह</w>
स का</w>
प ट्टी</w>
त्र ी</w>
जरू री</w>
क वि</w>
ए गा</w>
जि ला</w>
सच्च े</w>
का /
भो जन</w>
प्रा य
्रा ष्ट्र
र् ष</w>
स चि
पहु ंच</w>
ची ज़
संस् करण</w>
न् द्र</w>
ें स</w>
w w
घ ं
ब्रिटि श</w>
कार ा
र ्र
-# -#
क् टर</w>
परि व
स् ता</w>
समझ ते</w>
र )</w>
आ दर्
शीघ ्र</w>
बिल् कुल</w>
इ ल</w>
सौ ं
शताब् दी</w>
आत् मा</w>
फा य
त या</w>
च ला
o u
ई .</w>
इबरा हीम</w>
म् भ</w>
मि त्र</w>
ं चा</w>
जाएँ गे</w>
संस्था नों</w>
फ़ रिश्
च म
1 .
रख ी</w>
ज़ा र</w>
सां स्
शै तान</w>
अप्र ै
ht m
सा व
तु लना</w>
ै व</w>
बा व
छो टी</w>
आप ने</w>
त थ
डे टा</w>
कंप ्यूटर</w>
अपे क्षा</w>
अ क
मौजू दा</w>
प्रत्य क्ष</w>
सं तु
बि ं
पृ ष्ठ
व्यक्ति गत</w>
लग ्
आका शों</w>
करने वालों</w>
े गा।</w>
रा ज</w>
नि ग
1 3
. nic
बि ज
ड रा
ने वा
व ्
दि क</w>
प्र वि
ं चे</w>
प्रति नि
ले ना</w>
र िया</w>
à¤ ¸
परि क</w>
पु लिस</w>
उप करण</w>
गु ना</w>
विशा ल</w>
स त्या
बा त
अव स्था</w>
खु लती</w>
बैठ े</w>
फो न</w>
छोड़ कर</w>
गु ण</w>
कु फ्
करें गे।</w>
तारी ख</w>
ब्या ज</w>
खा ने</w>
ग ए।</w>
अत्य ंत</w>
ना क</w>
समा धान</w>
प् ले
.nic .in
इं टर
5 0</w>
झ ग
मुस् लिम</w>
ट ्रा
प्रदर् शित</w>
मी र</w>
सि र</w>
्राष्ट्र ीय</w>
ब ले</w>
प्रयोज नों</w>
त मा
विंड ों</w>
गु ज
पहुँ चा</w>
आ रो
बता या</w>
द स</w>
स्थ ल</w>
सम्मि लित</w>
मिल ता</w>
ब ित</w>
रोज गार</w>
हो ं।</w>
ड िया</w>
गुणव त्ता</w>
अनु च्छेद</w>
- वि
हा लत</w>
फ़ र
रो क</w>
अनिवार ्य</w>
संस् कृत</w>
रह ती</w>
थे .</w>
ठ ी</w>
अ प</w>
यू नि
िय ों,</w>
संके त</w>
घोष णा</w>
किसा नों</w>
अ फ्री
र ो</w>
क्ष मा</w>
खा ना</w>
सद ैव</w>
अं त
स्त्र ी</w>
फ़ ै
ता ल</w>
जि म्मे
आं दोलन</w>
मही ने</w>
पा न</w>
- कर</w>
ब )</w>
.nic.in /pr
ती सर
1 4
भू ति</w>
वि ज
बा ल</w>
मर् श</w>
सम ी
अंग्रे जी</w>
ग लत</w>
सख् त</w>
स रा
शा ह</w>
दा )</w>
ग े,</w>
म ज़
स्वा मी</w>
टु क
उठ ा</w>
ते जी</w>
चाहि ए.</w>
घ रों</w>
का त</w>
हाला ँकि</w>
ल घ
गं भी
जहन्नु म</w>
दी र्
जिस को</w>
डा ला</w>
" क्या</w>
श्र म</w>
औ न</w>
ब ों</w>
होंग े।</w>
पा क</w>
विचार ों</w>
ख र्च</w>
उल् लेख</w>
त ला
रह ना</w>
पहुँ च</w>
क् ट्र
निशा नियाँ</w>
सा मान्य
ठ ि
ए ह
क्षेत्र ीय</w>
ट ना</w>
सम्बन् ध</w>
मुसल मानों</w>
प्रती क</w>
रि ए</w>
रख े</w>
कर ी
र द्
सं सार</w>
व्य य</w>
मान ते</w>
पहुँ च
कठि न</w>
प्र माण</w>
इन के</w>
' '
क श्
ल् ल
प े</w>
गिरो ह</w>
परिष द</w>
दा ता</w>
तु र्
य था
समझ ा</w>
( क)</w>
न ये</w>
ार्थ ियों</w>
आं क
वि वाह</w>
(2 )</w>
निका ल</w>
सा क्ष
आ दि
प्र शं
प ें
न र्
सांस् कृतिक</w>
आ स
लघ ु</w>
निय ो
आय -कर</w>
गुना ह</w>
स् मृ
ख ी
e t
यु वा</w>
आ र</w>
कृ त
स )</w>
निय मित</w>
आप स</w>
क्र ी</w>
अ लग
सं भा
दायि त्व</w>
ग़र ज़</w>
स्थि तियों</w>
स् य</w>
व्या व
म श
प्र सिद्ध</w>
तकनी की</w>
प्र भु
त्र ा
जी वित</w>
ई श्वर</w>
बाव जू
क थ
दू र
गि ज़</w>
न ृ
पह ला</w>
कार ्र
मि ट्टी</w>
उ र्
क न</w>
अं दर</w>
ं द</w>
à¤ °
( और)</w>
क हो,</w>
1 2</w>
ही न</w>
जिन का</w>
वा ता
बढ़ा ने</w>
हि मा
अंतर राष्ट्रीय</w>
वैश् विक</w>
च ढ़
पं जा
इ जरा
ंभ िक</w>
स् म</w>
शै क्ष
स ड़
केन् द्र
सं चार</w>
निय मों</w>
गै र</w>
इ तनी</w>
S )</w>
बढ़ा वा</w>
( ख)</w>
ब ई</w>
कू ट
, 000</w>
म न्
का ना</w>
मूल ्या
सं गत</w>
( बाहरी</w>
वार्ष िक</w>
सु ना
भे ज</w>
निय त</w>
चा ई</w>
हर गिज़</w>
वस्तु ओं</w>
इस्ला म</w>
सु धार
द िया
( ख़ुदा</w>
विद्य ु
वि रोध</w>
त् तर</w>
बु री</w>
द ियों</w>
नसी हत</w>
आ त</w>
कार ,</w>
एक- दूसरे</w>
हि सा
अध्य क्ष</w>
प्रया सों</w>
पश्चि मी</w>
छो टा</w>
मिल ने</w>
वि निर्दिष्ट</w>
ए का
वा क़ि
पर्या वरण</w>
श क्ति
गया ,</w>
साथ -
प्रा प्ति</w>
हाला ं
स् टा
बना ना</w>
अधिक तर</w>
( ये</w>
प्रका श
भ रो
तर फ़</w>
स ज
शा ंति</w>
महि लाओं</w>
बु निया
हर ों</w>
पत्थ र</w>
ख ंड
ंग ी</w>
स् ति</w>
विस्त ृत</w>
अर्थ व्यवस्था</w>
ने ता</w>
पश्चा त्</w>
ज़ रु
सु ं
ध ो
पर स्
म ना
च लते</w>
अधिक तम</w>
ध र</w>
प्रा प्
चि न्
रुप ये</w>
मा लिक</w>
भ ंड
श ख़्
प्र ि
हस्ता क्षर</w>
ने वालों</w>
अ फ
प्र युक्त</w>
चाह िय
ई सा</w>
क़ रीब</w>
ए म</w>
1 -
सू क्ष्
सर क
ब हा
च रि
न ।</w>
स हम
े -
कल ्या
हिसा ब</w>
र ौ
सा फ़</w>
लगा या</w>
प ण
हि र</w>
हूँ ।</w>
प ड़</w>
करो ।</w>
संघ र्ष</w>
वि रो
दर् शी</w>
ता .</w>
थी ं।</w>
नि प
चार ों</w>
ए क्स</w>
ले ता</w>
ल िय
म ियों</w>
शुभ काम
कर ,</w>
ही ,</w>
सं लग्
श क़</w>
नाग रि
द ै
ले खा
ट्र ै
कर ी</w>
ं )</w>
अव ै
सू स</w>
र िया
ज़ ी
हा नि</w>
गां व</w>
e c
स्ट र</w>
स् पर्
साम ना</w>
यूरो प
प्र शासन</w>
भाष ण</w>
बू ल</w>
खि ल</w>
दृष्टि कोण</w>
सम क्ष</w>
सब को</w>
मार्ग दर्शन</w>
बा ग
ज ,</w>
रा ब</w>
त रह
a c
नं द</w>
भे द</w>
पी ठ</w>
व ें</w>
बिज ली</w>
न् ट</w>
हो गा
करो ,</w>
ti on</w>
ब चा</w>
पड़ ता</w>
द ित</w>
ख ड़ा</w>
) ।</w>
अ के
प्रा व
उप युक्त</w>
आ या
करे गा।</w>
वास ियों</w>
स लाह</w>
हु ई।</w>
बि ल</w>
रह े।</w>
टे ड</w>
पा कि
सिस्ट म</w>
विश् ले
वि ज्ञा
ना मक</w>
प्र सन्
à¤ ª
सु झा
ग्र ं
में ट</w>
दे व</w>
कृ ष्
रो ज़ी</w>
मु र्
त य</w>
जोड़ ें</w>
क् लिक</w>
ग्र े
इ बाद
कर्म चारियों</w>
men t</w>
त ल</w>
फ़ ी</w>
ट ो</w>
संशो धन</w>
का फ़ि
प थ
3 )</w>
स श
ड़ ने</w>
र ं
आय ु</w>
ट ्रे
तर िक</w>
शु द्ध</w>
बि ल
दे य</w>
ं .</w>
लिख ने</w>
खा द्य</w>
सा द</w>
सफ ल
वाय दा</w>
स ें
पर )</w>
पद्ध ति</w>
ल्यू शन</w>
न्या य</w>
द ी।</w>
ष ों</w>
मा बू
खा ली</w>
शु रु
कार बार</w>
अं ग</w>
श्रे णी</w>
मिल कर</w>
नियु क्त</w>
च् छ</w>
क द
गतिविध ियों</w>
1 7
नाग रिक</w>
साथ- साथ</w>
कहा नी</w>
स व</w>
अ द्य
स प्ता
सर् वा
लेख क</w>
स् ना
रख ो</w>
तृ त्व</w>
क दा
ल ्य
मह सूस</w>
आ सान</w>
कु ंजी</w>
परस् पर</w>
इ त्या
न् वे
व्यव सा
द ंड</w>
च ल
क्षे प</w>
त् मा</w>
हा थों</w>
ग वाह</w>
न्व यन</w>
दृ ढ़</w>
उप बंध
धा नी</w>
द् धि
तर् क</w>
2 5</w>
पर ा</w>
निर ंतर</w>
भि न्
ी -
मा नी</w>
स च</w>
वा ओं</w>
अन् तर्
मुख ्य
य त्
जिन की</w>
उस पर</w>
सं ग्रह</w>
ब जा
साम ्रा
निर् देश</w>
इच्छ ा</w>
ब ता</w>
पा ई</w>
समु द्र</w>
र क्त</w>
त व्य</w>
ज ंग
बना ई</w>
खो ल</w>
सा मान</w>
स दन</w>
- -
ख र</w>
मत लब</w>
मु क़
सर ण</w>
पा ए</w>
गु मरा
ए जें
के ,</w>
कट ौती</w>
एश िया
र् स</w>
ख े</w>
ह ॉ
हृ दय</w>
प्रेर ित</w>
ला ना</w>
अवै ध</w>
अनु मो
अ स्ति
वि नि
पहुँ चा
अनु प्रयोग</w>
ृ ंख
द्वी प</w>
ज़ ू
यु ग</w>
मु ह
à¤ ¨
भा ँ
ख ़</w>
निम् न</w>
श य</w>
परिणा म
वाता वरण</w>
बना कर</w>
ते ल</w>
अंतर ्राष्ट्रीय</w>
शि का</w>
प्र शास
पूर् वा
दा वा</w>
ंग े।</w>
. htm
खु शी</w>
प्रो ग्राम</w>
इन् हें</w>
हा ँ
त त्व</w>
वि तरण</w>
भरो सा</w>
ब्र ह्
th e</w>
a .</w>
स ज़ा</w>
मान सिक</w>
मान ता</w>
शीर् ष</w>
ढ ूं
कठ ोर</w>
अ वि
‍ य</w>
सा गर</w>
आ इ
" %</w>
शि क</w>
अक् सर</w>
म शी
ग्र स्त</w>
उत् कृ
उम्मी द</w>
स्वा गत</w>
मु क़ा
बी मा</w>
फ् ट
पुरा ने</w>
पार् टी</w>
च लता</w>
ण ीय</w>
सं पूर्ण</w>
पार ि
समस्या ओं</w>
तौ बा</w>
खो लें</w>
वि द्
शू न्य</w>
ू न</w>
ला व</w>
मु ला
स क</w>
पूर्व वर्ष</w>
ज मा
ो ,</w>
बावजू द</w>
ता व
सं बो
एव ो
भंड ार
ट क</w>
वा णि
कि तने</w>
निदेश क</w>
य हू
नि हित</w>
अलग -
फ़ि ल्
शख़् श</w>
ढ़ ी</w>
न क
कि तनी</w>
सा नी</w>
भ ला</w>
स्व तंत्र</w>
ने वाली</w>
न स्
ची त</w>
इ रा
स भा
ब री</w>
पे ज</w>
ग ्र</w>
बढ़ कर</w>
दा स</w>
ं ति
ने श
िय त</w>
सं ग्र
चुना व</w>
तिहा सिक</w>
ि का</w>
मा ता</w>
ण -
जा नी</w>
करा ने</w>
प्र ार्थ
हि क</w>
पु ट</w>
द िये</w>
को ड</w>
लि ख</w>
प क्
इं जी
त ी,</w>
प्रसन् नता</w>
नवा न्वे
हिन् दू</w>
सक ता।</w>
द त्त</w>
२ ००
श कों</w>
तक ली
गंभी र</w>
( अ
लगा ने</w>
करने वाले</w>
डॉ .</w>
अप ील</w>
इबाद त</w>
फे र</w>
कार्र वाई</w>
ार् थी</w>
वि देश</w>
ल् स</w>
द िया,</w>
ख़ र्च</w>
भ य</w>
गी .</w>
द ,</w>
य ण</w>
प्राथ मि
भा ल</w>
तो )</w>
C om
व ,</w>
लि ए
कि रा
उत् तम</w>
बन् द</w>
परियोज नाओं</w>
प वि
ध न
गठ न</w>
(i )</w>
मं च</w>
प्रतिनि धि
आ न
शुभकाम नाएं</w>
दिखा या</w>
त था
उप बंध</w>
य र
ना इ
कवि ता</w>
क क्ष</w>
हो नी</w>
भाँ ति</w>
ब जे</w>
संग ण
धी रे</w>
ए फ</w>
सर ल</w>
कार्य क्रमों</w>
ं जी
ि ता</w>
शिका यत</w>
ता एं</w>
ग्र ी
ख ूब</w>
स्मृ ति</w>
श ु</w>
मु ना
पा त्र</w>
अन् त
पर हे
ने तृत्व</w>
अनु सरण</w>
वि वे
पहु ंचा
ज़ु ल्म</w>
एवो ल्यूशन</w>
च ,</w>
गण राज्य</w>
नहीं )</w>
भ लाई</w>
परी क्षण</w>
ह वा</w>
रब !</w>
म स्
ल् ड</w>
मूल्या ंकन</w>
पा ते</w>
प ट्
नि रा
कि ल</w>
पत् नी</w>
ट ्यू
ल ें
आयोज न</w>
स त्र</w>
ब ल
लि प
प्र च
दे कर</w>
दि ना
इ ले
बु द्धि</w>
क ित</w>
ओ ं,</w>
झू ठ</w>
ह ल</w>
सि वा
श न
h i
म ती</w>
स्क्र ीन</w>
ज़ ्या
बात चीत</w>
न् वित</w>
इंड िया</w>
मूल ्य
ध क</w>
हालां कि</w>
खे ती</w>
अत्य धिक</w>
आ ध्या
प सन्
डर ते</w>
पद ार्थ</w>
आ ग
ला ता</w>
ग़ ै
ल िया
पा ं
फ ार्
बा ँ
बुनिया दी</w>
आध्या त्
गा ँ
व ट</w>
ं स
1 1</w>
u r
सिद्धा ंत</w>
थ ि
कॉ न्
रा स्ता</w>
A )</w>
सु न</w>
घा टन</w>
e l
दे वी</w>
ऐ तिहासिक</w>
न म</w>
द )</w>
गय े।</w>
हो ?</w>
घ रे
दू ध</w>
उपा य</w>
विद्य ार्थियों</w>
मा नित</w>
लि ब</w>
उप चार</w>
र ै
म ल
निशा नी</w>
ता पूर्वक</w>
टि प्
घ े
च ना</w>
अनु वाद</w>
लेख न</w>
अभ ियान</w>
v i
पर्य टन</w>
भ ली-
का ं
h er
हरा म</w>
ल् ला</w>
वा दा</w>
कल्या ण</w>
पैग़ म्बर</w>
ह स्त
भे जे</w>
पंचा ंग</w>
ठि काना</w>
आतंक वाद</w>
à¤ ¾</w>
सि फ
वि रा
कर ना
अस्ति त्व</w>
साम र्थ
संबंध ों</w>
वि ध</w>
लग ी</w>
तर ी</w>
पा स
आय तें</w>
तु र
t o
स्था नों</w>
दि ख
खु ले</w>
करा र</w>
इ कट्
विद्यु त</w>
( भी)</w>
मिल ती</w>
आ म
अ दा
आदर् श</w>
स्ट ्रे
रह ेंगे</w>
धि कार</w>
अभि लेख</w>
e -
ह )</w>
मो ड</w>
ग री
कि ,</w>
बना ते</w>
ऑ न
इंजी निय
अ रब</w>
सप्ता ह</w>
स्त्र ियों</w>
पाठ ्य
इजरा यल</w>
ज़ा लिम</w>
र् ण</w>
पु स्ति
ख़ा स</w>
ी )</w>
हा लॉ
हा इ
सक े
वृत् त</w>
मान क</w>
प ्या
कानू नी</w>
विष यों</w>
गुमरा ही</w>
भा गों</w>
का लिक</w>
ट्र ो
प्र यो
इ तने</w>
अम री
ख्या ल</w>
Com ment</w>
नि गम</w>
पे ट</w>
ती व
व ो
दूसर ों</w>
जाए गी।</w>
संस्था ओं</w>
जो ड़</w>
उप योग
(i i)</w>
फ़ै सला</w>
जु ड़े</w>
निर्दे शिका</w>
ति थि</w>
माम ला</w>
( तो</w>
त्य ा</w>
जा तियों</w>
क् ट</w>
अ सफल</w>
लगा तार</w>
मान ो</w>
्य ु
ष् क</w>
क लन</w>
आ यु
से -
सम े
पाकि स्तान</w>
द ु</w>
ड ु
आ जा
स भ
सा धन</w>
समर् थ</w>
कर्म चारी</w>
र न</w>
क़ु र
ग ंगा</w>
बि क्री</w>
जो खि
गु प्त</w>
m u
न ष्ट</w>
ठ े</w>
ध ू
क ें</w>
घरे लू</w>
की मत</w>
दस्तावे ज</w>
मेहर बान</w>
ब ारा</w>
- प्र
समु द्र
म छ
बन ने</w>
साहि त्य
प्र दू
हो ं,</w>
मो मि
अ का
ईमान दारों</w>
मि शन</w>
ख द</w>
च क</w>
आ स्ति</w>
द् वार</w>
ग वाही</w>
ह जार</w>
वे क्षण</w>
मी डिया</w>
पूर् वी</w>
ग ें
आं तरिक</w>
प्राय ः</w>
कर ा</w>
ट ॉ
पसन् द</w>
क ्या
मि श्र
भग वान</w>
बुरा ई</w>
विध े
s )</w>
मुसल मान</w>
बढ़ ा</w>
सम स्त</w>
य े
ण िक</w>
4 )</w>
हु ए।</w>
मौ सम</w>
प्रे त</w>
प् ला
जा त</w>
सह कारी</w>
( दुनिया</w>
न्यू नतम</w>
कह ता</w>
हिं दु
देख भाल</w>
बहु त-
आ युक्त</w>
हा द</w>
का व्य</w>
अद्य तन</w>
सवा ल</w>
र खा
महत् त्वपूर्ण</w>
कि सान</w>
अलग- अलग</w>
सं वेद
सं भावना</w>
रख ें</w>
व्यवसा य</w>
तमा म</w>
िय ल</w>
हालॉ कि</w>
 à¤
हिं दू</w>
कौ शल</w>
शीर् षक</w>
संख ्या
पे श
आ ए
वे तन</w>
पक ड़</w>
सु बह</w>
D )</w>
यू सु
त िया
l i
दे न</w>
पी ड़
त भी</w>
चा लित</w>
19 3
नी ,</w>
घो षित</w>
करी ब</w>
वि दा</w>
मि ली</w>
पू जा</w>
बैं कों</w>
अंतर ण</w>
त्रु टि
2 5
वर ों</w>
परहे ज़
जाय े
प्र योग
पढ़ ने</w>
ं ट
मह ल</w>
ची ज</w>
स्त ियों</w>
संसा धनों</w>
त् म</w>
र जि
मुक़ र्र
तु झे</w>
डि ंग</w>
http:/ /pr
संचा लन</w>
ौ र</w>
न्याया धी
स ौ</w>
ऑन लाइन</w>
o r</w>
अमेरि का/
च ि</w>
m a
प् ल
देश ,</w>
ख ो</w>
अ स्प
हो गा.</w>
जा ँच</w>
आवश्य क
C )</w>
सिवा य</w>
मो बा
घ न</w>
रद् द</w>
आ ग्रह</w>
: %</w>
भाषा ओं</w>
अभि प्रेत</w>
r a
मा ँ</w>
त्रि का</w>
ल् ट</w>
कॉ ल</w>
से .</w>
को वि
कृष् ण</w>
अपरा ध</w>
प्रयोज न</w>
म धु
ध्व नि</w>
दया लु
सर ों</w>
क्ष ता</w>
औ ष
मौ त</w>
गण ना</w>
नागरि कों</w>
उम् र</w>
शुरु आत</w>
भली- भाँति</w>
रा स्ते</w>
म ल</w>
परि स्थितियों</w>
दया वान</w>
करने वाला</w>
शे यर</w>
ार् ड</w>
वर् ण</w>
प्रोत्सा हन</w>
औ ला
पं क्ति</w>
पैग़ म्ब
त ट</w>
उद् घाटन</w>
ि म</w>
शि क्षा
ब ढ
सी धा</w>
म ण</w>
ट री</w>
R )</w>
बाद ,</w>
प्रार्थ ना</w>
दे ंगे</w>
स ियों</w>
बो ल</w>
! "</w>
कर् ताओं</w>
लड़ के</w>
म स्ति
द्वि तीय</w>
जा ग
लोक न</w>
पु त्र</w>
वि न्यास</w>
अर्था त</w>
बे टे</w>
पो षण</w>
पह ल</w>
गृ ह</w>
का ग
वा द्य</w>
नि री
शि ल्
वर् धन</w>
थी ं</w>
जि तना</w>
ग़ा लिब</w>
करें ,</w>
हिस् से</w>
खिला फ</w>
आउ ट
महा महि
चे तना</w>
गै र-
2 .</w>
मा स</w>
ब ्रे
समर्थ ित</w>
कल क
ल य,</w>
बो झ</w>
नी ति
देख ें</w>
दा यी</w>
त ता</w>
फ्ट वेयर</w>
पर ो
नि कों</w>
क ड़
संबो धित</w>
फ ्रा
रे ल
बद लाव</w>
डा टा</w>
आ सानी</w>
पार ित</w>
दीर् घ
आ श्च
बना एँ</w>
फ ाइ
आध्यात् मिक</w>
i n</w>
ह ल्
सं कल्प</w>
फै सला</w>
ख़ु द</w>
कि लो
उपयो गी</w>
ज टि
कार क</w>
मूर् ति</w>
अं तर</w>
दर वा
देख ो</w>
दयालु ता</w>
ज्ञा पन</w>
समा चार</w>
ले ज</w>
प्रशं सा</w>
लौ ट</w>
पृथ ्
क्ष मा
कु मार</w>
वे ब</w>
मिटा एँ</w>
सी ख
दि खा</w>
सेवा एं</w>
देख ता</w>
व ियों</w>
व क्त
मुक़ा बले</w>
भी -
ल क्षण</w>
प्र यत्
प त
ग ढ़</w>
सहे जें</w>
दि शा
अ ब्
च लने</w>
सा बित</w>
फि ल्
पुस्ति का</w>
और तों</w>
श ौ
लि पि</w>
सिफ ारि
य ू</w>
प्र क्रिया
खा स</w>
अधि कारों</w>
हिं दी</w>
व चन</w>
ज क</w>
ग )</w>
कि तना</w>
माबू द</w>
ज़रु र</w>
श ारी
ने क</w>
त स
गु ज़र</w>
प्राथ मिक</w>
उ ड़
आ न</w>
ज ू</w>
अ ज्ञात</w>
सी .</w>
क ियों</w>
स दी</w>
ने हर
धर् म
वि परी
वा ,</w>
डा उन
स् की
भागी दारी</w>
ट -
1 00</w>
ना )</w>
पक्ष ीय</w>
सु ना</w>
भाष ित</w>
व हीं</w>
न वी
झुठ लाया</w>
इस रा
सर्वो च्च</w>
न क़
तथ ्य</w>
व ंश</w>
ध ्या</w>
ते ज</w>
घा त</w>
सू र्य</w>
विज य</w>
रि ंग</w>
जिन को</w>
स् पे
र स</w>
ध े
उपबंध ों</w>
e )</w>
ख़ ूब</w>
शि क्ष
टा न</w>
रुप ए</w>
मी .</w>
प्रती त</w>
वि विध</w>
ज़ त</w>
शा ही</w>
ल य
मं जू
फ सल</w>
न ज
देख कर</w>
ह थ
सि क्
साय िक</w>
सर्वा धिक</w>
मुं बई</w>
ृंख ला</w>
रु .</w>
थो ड़ा</w>
बन् दगी</w>
फ ें
ह ट</w>
उठा ने</w>
यक़ी नी</w>
उत्पा दों</w>
भ ी।</w>
जल् द</w>
किन ारे</w>
1 6</w>
त् ‍
mu k
हिं सा</w>
ज़ ोर</w>
कर णों</w>
सं सद
बा ह
ज़ े
मुझ से</w>
मु श्
पड़ ा
छ ह</w>
गु ज़
है !</w>
न् स</w>
खु श
क हाँ</w>
उद् देश
अन् दर</w>
ली ल</w>
खु ली</w>
ई ल</w>
अमेरि की</w>
फ ौ
चीज़ ों</w>
च लो</w>
च न्द</w>
6 0</w>
प् लग
लो !</w>
ने ताओं</w>
ष्ठ ा
शा खा</w>
दु आ</w>
अर्था त्</w>
भू ल</w>
च य</w>
व क</w>
ध ै
जा ल</w>
j ee
हैं -
पा ल
an ab
सु ल
सच्च ा</w>
muk her
mukher jee
mukherjee .nic.in/pr
http://pr anab
http://pranab mukherjee.nic.in/pr
लड़ ाई</w>
वा हि
जाए ,</w>
i d
कारा त्मक</w>
http://pranabmukherjee.nic.in/pr h
कर ू
प्रार ूप</w>
ट ें</w>
समृ द्ध</w>
कठि ना
उ ड़ा
लोक प्रिय</w>
न मू
अ म्
( म
मोबा इल</w>
एँ गे</w>
भौ तिक</w>
आ पूर्ति</w>
हर ें</w>
इन् कार</w>
इका ई</w>
र ण
झुठ ला
स् व</w>
फ़ा र</w>
प्रभा व
गुज रात</w>
अनु कूल</w>
सू र
द्र ो
कु फ़
श ने</w>
राज नैतिक</w>
प्र भार
त न्
विरो धी</w>
वाद ियों</w>
प्रती क्षा</w>
एश िया</w>
ल म</w>
जा कर</w>
क़ु रान</w>
विश्ले षण</w>
व्या पार
विद्य मान</w>
प्रतिनिधि त्व</w>
नू ह</w>
चुन ौ
वर् ड</w>
ब ,</w>
द शक</w>
क़ रा
एक ल</w>
( कि</w>
कमा ंड</w>
201 8</w>
समझ ा
चे ताव
चु ने</w>
उपयो क्ता</w>
ह टा</w>
बा नी</w>
नु सार</w>
तरी का</w>
जिन से</w>
बी मारी</w>
ने की</w>
द रा
कूट शब्द</w>
मे ह
न् न
श्रे ष्ठ</w>
शा स्त्र</w>
मान्य ता</w>
es s
समा प्ति</w>
सामर्थ ्य</w>
बाग ़</w>
बा ई</w>
परिवर्त ित</w>
ट ियों</w>
वर् ग
उच्च तम</w>
रा इ
निर्वा चन</w>
च ली</w>
व ली</w>
जन संख्या</w>
प -
अ दा</w>
सा थी</w>
टे ली
ज़ा हिर</w>
य श
मार् च</w>
ग्राह क</w>
औ सत</w>
नु क
लि ंक</w>
मुक़र्र र</w>
बद लें</w>
गि ता</w>
कुफ़ ्र</w>
à¤ ®
म ्</w>
गि न</w>
कर वा
ं त
2 4
ह रि
र ॉ
स्पष्ट ीकरण</w>
स ारा</w>
न यी</w>
कु छ
शा ला</w>
ष ी</w>
का फ़ी</w>
q u
स्व तः</w>
मुद् दों</w>
तू ने</w>
अनु मान</w>
वे द</w>
वि विध
पु र्
क था</w>
अध्या य</w>
( उस</w>
मु कद
बा बत</w>
गु रु</w>
अ ल</w>
च ार्
समझौ ता</w>
भ ु</w>
दर् ज</w>
जोखि म</w>
भार ती
फ ॉ
( जो</w>
हम से</w>
ह टकर</w>
शं कर</w>
पंजी करण</w>
ठ ो
निष् क्र
स्थि र</w>
शब् द
प्रोत्सा हित</w>
पी .</w>
उ तर
लोक तंत्र</w>
प्र ी
क्रि प्
किया .</w>
आ लो
प शु
ग ार
म नी</w>
आ नंद</w>
सर दार</w>
शारी रिक</w>
o t
उपलब् ध
अनु रोध</w>
सरा ह
नि भा
सुविधा ओं</w>
ए कता</w>
नेहर ू</w>
क्र य</w>
कर ना,</w>
इले क्ट्र
सुं दर</w>
रहा ।</w>
ग ू
दे र</w>
उद्य म</w>
( %</w>
शैक्ष िक</w>
औला द</w>
शो क</w>
दो ष</w>
घ ू
कर े।</w>
इत्या दि</w>
सा ई</w>
वि वाद</w>
1 4</w>
त् तम</w>
जाए गा,</w>
का लय</w>
अनु प
उत् तरा
छू ट</w>
à¤ ²
( की</w>
न शील</w>
में ।</w>
उद्यो गों</w>
सर कारों</w>
स चे
प्रका शन</w>
हूँ ,</w>
ले )</w>
घट नाओं</w>
शि कार</w>
रे ल</w>
फिर औन</w>
ड ्यू
कुफ् फ़ार</w>
वै से</w>
परा मर्श</w>
अनु रूप</w>
इस को</w>
जि ले</w>
ढूं ढ
ए की
ट िक</w>
श् व
त स्वी
ड ों</w>
वर्ष ा</w>
द्ध ता</w>
पवि त्र</w>
साझ ी
नेश नल</w>
ण ु</w>
वि ल</w>
संगठ नों</w>
ज़िन् दगी</w>
ज़ ल</w>
समर् पित</w>
रे खा</w>
मु सी
चा ल</w>
म् मद</w>
अग ला</w>
अ चा
पृथ् वी</w>
दस्तावे ज़</w>
द ी,</w>
चाहिय े।</w>
श हरी</w>
मा ं</w>
ड़ ते</w>
चा लू</w>
ब ज
म क
ज य
गै स</w>
ग ारों</w>
उठा ए</w>
s "</w>
रह मत</w>
ड़ ियों</w>
कार्या न्वयन</w>
त्या ग</w>
ज मीन</w>
5 )</w>
व रि
ंक ित</w>
इंटर नेट</w>
बद लने</w>
ईमान दार</w>
ं तों</w>
हिन् दु
मा न्य</w>
हु ई
लो ,</w>
परिव हन</w>
प्रेर णा</w>
प्राथमि कता</w>
पार ं
ता )</w>
शीर् ष
द्व ारा
के -
कह ेंगे,</w>
इन का</w>
म ज़ा</w>
बी र</w>
फ़ ्
इस ने</w>
a l</w>
प्र शा
बे स</w>
कार्य वाही</w>
कदा पि</w>
à¤ à¥
शरी क</w>
रो ग
मश ीन</w>
पा लिका</w>
न ज़र</w>
1 9</w>
( वह</w>
विवर ण
लिख ी</w>
भ रा</w>
परं परा
दर म
खरी द</w>
विशेष कर</w>
कश् मीर</w>
क था
1 .</w>
( क़यामत</w>
घं टे</w>
प्रार ंभिक</w>
दो स्त</w>
ूं कि</w>
सि त
शि खर</w>
छा त्रों</w>
ते री</w>
पु ष्
न्द्र नाथ</w>
वर ी,</w>
ते )</w>
हैं ;</w>
अप्रै ल,</w>
सो च</w>
चाहि ए,</w>
ए न</w>
सम न्व
र ण</w>
म ंग
पर ी</w>
निग रानी</w>
अनु सार
फ रिश्
दा हि
र ही
पर माण
पड़ ी</w>
टी म</w>
ला इस
परिणाम स्वरूप</w>
ती त</w>
क ब्
रौ शन</w>
पंजा ब</w>
धार णा</w>
जाए गा
ि की</w>
होंग े,</w>
स् मार
आख़ि र</w>
आ कर</w>
अ त</w>
मूल ्यों</w>
क़ िया
घ ड़ी</w>
रे ट</w>
अप रि
0 -
ों /
विभा जन</w>
ज रिए</w>
गा मी</w>
. .</w>
रोक ने</w>
” -
मु श
प ना</w>
( 3)</w>
बा बू</w>
प ट</w>
कनेक् शन</w>
अचा नक</w>
अक बर</w>
जल वायु</w>
घ ि
कलक त्ता</w>
उल् लेख
सक ें।</w>
गुना हों</w>
- -</w>
सं वाद</w>
योज न</w>
प्रति क्रिया</w>
ड न</w>
प्र त
नियंत्र ित</w>
1 8</w>
हो .</w>
पारं परिक</w>
देख ो
डाउन लोड</w>
सर् वेक्षण</w>
बिल कुल</w>
नृ त्य</w>
नक़ ल</w>
स् वि
सज दा</w>
महा त्मा</w>
प्राधि कारी</w>
स त्य
प्रभु त्व
दे ं।</w>
खु ला</w>
अं तरा
दरम ियान</w>
ड ,</w>
घा टे</w>
: -</w>
श हरों</w>
नि ष
ए ंड</w>
इकट् ठा</w>
संसद ीय</w>
उपभो क्ता</w>
स्त ंभ</w>
रसू लों</w>
भ ट
लग ते</w>
तो ष</w>
i s
सम्बन् धी</w>
वि रू
लॉ ग</w>
रेल वे</w>
उप न्यास</w>
सुझा व</w>
ख ्या</w>
सब् र</w>
श नी</w>
2 .
हो )</w>
माँ ग
न ारा
क् शन</w>
आवा ज़</w>
पुरा नी</w>
दी वार</w>
ज म्
विपरी त</w>
त :</w>
जा दू</w>
गय ी।</w>
0 .
आ ठ</w>
स् कू
स त्
क़िया मत</w>
र क्त
अप ी
) .</w>
ता प
ज़िन् दा</w>
मस्ति ष्क</w>
चुन ौती</w>
व ॉ
ब टन</w>
दा खिल</w>
आम तौर</w>
मस् जि
और ़</w>
अन क़रीब</w>
स्थि ति
पृष्ठ भूमि</w>
क ब</w>
आस पास</w>
( अपनी</w>
साथ ,</w>
र म</w>
पैग़म्ब रों</w>
e .</w>
डि जा
2 4</w>
औ प
ज ारों</w>
ग न्
आ मंत्र
न ज़
आकर् षित</w>
को ल
इन की</w>
अनु सूचित</w>
मनु ष
उत्तर ी</w>
आर म्भ</w>
सी )</w>
या ं</w>
समझ ने</w>
भा वी</w>
लं बे</w>
2 1</w>
ह वाई</w>
हो ता।</w>
न बी</w>
ड् स</w>
ि ंग</w>
दे ।</w>
परं परा</w>
कार ा</w>
आ ना</w>
स्वी कृति</w>
मुला कात</w>
दा दा</w>
सं ग</w>
बख् शने</w>
T )</w>
प्रशास निक</w>
द रत</w>
क् स
अ क्ष
( अपने</w>
सब के</w>
ना -
ऊ ंचा
भा विक</w>
कंप नियों</w>
ww w
ष्ट ्र</w>
व सू
योज नाओं</w>
दि र</w>
त द
च लाने</w>
फि ल्म</w>
अभि व्यक्ति</w>
क् ला
के रल</w>
आ क्रमण</w>
अपे क्षित</w>
र वी
पु ष्टि</w>
दे खा
गिर फ्
एस .</w>
ी ं</w>
सॉ फ्टवेयर</w>
शी ल,</w>
चिह् न</w>
मिल ियन</w>
3 1</w>
सम ग्र</w>
दि ल
क भी-
e d</w>
री ति</w>
बि हार</w>
भ ं
अन्य था</w>
सृ जन</w>
साझ ा</w>
है ...</w>
भ री</w>
दु खद</w>
( ख़ु
वि फल</w>
मै दान</w>
ते -
जोड़ ने</w>
चा लन</w>
क ती</w>
v )</w>
वा ं
या ँ</w>
गि र</w>
(i i
म् स</w>
पर् व
द ्</w>
ं /
तकनी क</w>
> ></w>
मान ना</w>
भंडार ण</w>
डा य
जन वरी</w>
विधे यक</w>
समी क्षा</w>
बजा य</w>
बढ़ ती</w>
कार ो
ंत्र िक</w>
जा म</w>
श क्तियों</w>
मा ह</w>
उ क्त</w>
अप ने-
ंग ,</w>
200 0</w>
बर द
न हरें</w>
M A
व्याव सायिक</w>
वर्त न</w>
क़् त</w>
उ दार</w>
o f</w>
" यह</w>
स्था ना
यूरो प</w>
सं भव
लि ए)</w>
मुश् किल</w>
प्रयत् न</w>
त ार
ख ड़ी</w>
अन्त तः</w>
सचि व</w>
वृ क्ष</w>
क च
ह त्या</w>
संलग् न</w>
संग्र हा
भाग ्य</w>
लि मि
अधि सूचना</w>
लू त</w>
ई मेल</w>
" मैं</w>
हैं ः</w>
च ूंकि</w>
सां सार
प्रे स</w>
परि भाषित</w>
ॉ प</w>
िय र</w>
पद ार्थ
डा ले</w>
अनु पात</w>
o o
c h
ह ँ
आ न्
गु म
in f
F )</w>
वा यु
न /
क /
का श</w>
ंग ों</w>
वि धि
द क</w>
ड्र ाइ
ची नी</w>
कम्प नी</w>
बार गाह</w>
ईमान वालों</w>
शा न</w>
बु द्धि
बा ग़
{ 0
रह ें</w>
महारा ष्ट्र</w>
दो बारा</w>
u t
ष्ट ा
दिखा ता</w>
जान ने</w>
परमाण ु</w>
ध ्र</w>
ेंग े
श ,</w>
ल ीय</w>
मिन ट</w>
बी ह</w>
चार िक</w>
गु ला
लं बी</w>
नुक सान</w>
P )</w>
बु द्ध</w>
ह ौ
ज्ञ ता</w>
घ टा
खो लने</w>
सन् तान</w>
विनि मय</w>
सांसार िक</w>
राज्य पाल</w>
प्र चार</w>
u s
स ना</w>
ब स्ती</w>
ी .</w>
मै ने</w>
फि ली
आ वास</w>
" अल्लाह</w>
फ ्रे
स्व च्छ</w>
श त्र
श क्त
विश्वविद्या लयों</w>
N )</w>
सि तं
नि ः
धै र्य</w>
स्वा मि
ट )</w>
शत्र ु</w>
प्र बंध</w>
क्य ू
सुन ने</w>
र् ष
म ई</w>
पें शन</w>
नो ट</w>
नियु क्ति</w>
उप स्थिति</w>
आ खि
( क
वर् गों</w>
यू ँ</w>
दा ख़ि
क ने</w>
वा ं</w>
रे शन</w>
खरी द
à¤ ¹
यु वाओं</w>
मौ जि
कु रान</w>
( )</w>
ड ू
अं श</w>
विभा जित</w>
यश ुदा</w>
ढा ंचे</w>
जाए गा.</w>
चौ ड़ा
ख़ ौ
एक मात्र</w>
4 0</w>
वाणि ज्य
बु रे</w>
त यशुदा</w>
स्वा भाविक</w>
सं कट</w>
स ले</w>
कि स्
सं बद्ध</w>
लि मों</w>
प्र सार
शा म</w>
ले ट</w>
रे -
ब ारी</w>
जि हाद</w>
चाह िये</w>
प्रतिष्ठ ित</w>
तै य
1 3</w>
( इस</w>
विरा सत</w>
विद्या लय</w>
ध ारी</w>
उत् सा
उ द
अध ी
भा ष</w>
थो ड़े</w>
क़ सम</w>
ह ला
की ट</w>
2 -
संपाद ित</w>
ला नेवा
दे ,</w>
जू न</w>
à¥ 
" हम</w>
अव तरित</w>
अल् प
प ढ़</w>
अ फ़
2 2</w>
सि ंग</w>
रो गी</w>
बि गा
प ने</w>
न जर</w>
जा ये</w>
स्ट ी
मि ले</w>
बिं दु</w>
स्वी कृत</w>
भ ेंट</w>
देख ना</w>
ही )</w>
स्थि ति,</w>
सं भाव
ष् ‍
रा न)</w>
बे हि
अदा लत</w>
( एक</w>
वै ध</w>
भ ड़
बा की</w>
प्रत ियो
शा खा
राज धानी</w>
प ट
2 3
1 7</w>
श्र ृंखला</w>
पा य
दिखा ने</w>
यु क्ति</w>
भ रे</w>
पै के
जाओ गे</w>
इ मार
अ हम
फ ॉर्
नी तियों</w>
तीव ्र</w>
ज़ रा</w>
को ं,</w>
क़ ी</w>
ऑ डियो</w>
सम े</w>
प्राधि करण</w>
उठा या</w>
आवा ज</w>
अ स्थायी</w>
मानव ीय</w>
क ीन</w>
सौ र</w>
प्रे षित</w>
ज नों</w>
ग रीब</w>
ष्ट ता</w>
ल ियम</w>
र् य
उत्कृ ष्ट</w>
सि विल</w>
भ ले</w>
फ़ि र
à¥ 
i s</w>
साम्रा ज्य</w>
व्या ख्या</w>
का फि
का ट</w>
ला ओ</w>
दो नो</w>
टे न</w>
ओ ,</w>
संपाद क</w>
पा लने</w>
चे हरे</w>
ख् ते
सर्वो त्तम</w>
प चा
ट्र ि
गठ ित</w>
स्व स्थ</w>
दि सं
उन् न
शर् तों</w>
न दार</w>
le as
( क़ु
है ।
गां धी
ए -
2 6
रह ित</w>
न रे
टिप् प
f in
हो म</w>
दु श्
दाख़ि ल</w>
म् य</w>
भेज ने</w>
ब ्यू
डि जि
जि ए</w>
ज ना</w>
ब्रा ह्
तुर ंत</w>
ज़्या दा</w>
श् वर
वा णी</w>
म ना</w>
क हो</w>
बना ता</w>
अ य
हुआ ,</w>
समझौ ते</w>
ह ड्
स्ट्र ी
सराह ना</w>
ड ब्
क़ा यम</w>
शु भ</w>
शा ली,</w>
प्राव धान</w>
उप खंड</w>
अं श
व ती</w>
ला ।</w>
अंतर ि
मो हन</w>
प त्रों</w>
दर् द
जे ल</w>
ष ा
प्रच लित</w>
2 )</w>
समा ज
सड़ क</w>
व ल
राज स्थान</w>
a il
त ना
डे स्
चिं ता</w>
इ ल्म</w>
ब्रा उ
ग ई
कि न्
सं ध्या</w>
क़ुर आन</w>
मो मिन
त ल
जहन् नम</w>
समुद्र ी</w>
मज़ बू
म ध्यम</w>
दै निक</w>
वि भाग
मि साल</w>
जिम्मे दारी</w>
à¥à¤ °
वि हित</w>
य ौ
पड़ ो
नि वास</w>
जी त</w>
अफ्री का</w>
शु रु</w>
वि पण
प्रबंध क</w>
ज ने</w>
आ ये</w>
त बा
करा या</w>
कै सा</w>
व की
घट क</w>
ग ल
मा ल
बाह ्य</w>
निर् देश
नं बर</w>
हि क
मो दी</w>
सम् पूर्ण</w>
समू हों</w>
डि फ़ॉ
ले ।</w>
प्र वाह</w>
त् ल</w>
वि मान</w>
स्तर ीय</w>
ख्या त</w>
मुसी बत</w>
जटि ल</w>
कम जोर</w>
उ धार</w>
आउ ट</w>
अह ले</w>
di a
बी ज</w>
झ ि
नवान्वे षण</w>
टे क्
अनु ग्रह</w>
शी लता</w>
निष् कर्
ख ण्ड</w>
अ क्षम</w>
e x
व्यव स्थित</w>
ऊ परी</w>
अनु दान</w>
2 7
ख राब</w>
कर े,</w>
उ द्या
हार् दिक</w>
च क्र</w>
उत ार
सफ ेद</w>
यूसु फ</w>
भ र्
ठो स</w>
च न्द्र</w>
गां वों</w>
किता ब
सा मू
स ो</w>
ता त्
क़रा र</w>
हिक मत</w>
.. ..
विन ष्ट</w>
सह ज</w>
रे खा
यूरोप ीय</w>
भ क्ति</w>
बौ द्ध</w>
पूर्व ो
नी )</w>
द्र ा
न्य ू</w>
टै ब</w>
क ही</w>
U R
वर् गी
लि न</w>
बा दी</w>
बच्च ा</w>
ता ला
उ तना</w>
सा ँ
श े</w>
प ल</w>
देख ी</w>
चिह् नित</w>
उन् होने</w>
हो ं
सत ह</w>
कभी- कभी</w>
शे य
म ारे</w>
फ़ाइ लें</w>
ध ीन</w>
डा र</w>
का उ
( उन
सम य-
विशेष ता</w>
द्वि पक्षीय</w>
उन् नत</w>
l e</w>
e a
पुस्त कालय</w>
पाठ्य क्रम</w>
न्यायाधी श</w>
शु क्र</w>
जाग रू
दु ः
अग्र णी</w>
प्रो टो
तो ,</w>
आवश्यक ताओं</w>
सका .</w>
स दा</w>
शा स्त्र
सरक शी</w>
व ह
बर सा
व श</w>
पे ड़</w>
पर म्
द ती</w>
द गार</w>
सु दृढ़</w>
सं हि
व्या ख्या
या चि
प्रति स्पर्
अ ँ
ें )</w>
सै निक</w>
सू र</w>
वि ना
पा इ
न ार
न री</w>
ध न्य
साव धान</w>
वि जे
वा ना</w>
बर दार</w>
ण ु
ग वर्
ंड ा</w>
2 8</w>
ॉ न</w>
यो गी</w>
प्रति निधि</w>
प्र स
नि ंग</w>
@ inf
दाय िक</w>
बहु तेरे</w>
पढ़ ा</w>
निरी क्षण</w>
) ...</w>
समृ द्धि</w>
ग हरा
शि क्षक</w>
सम य
ला )</w>
प्रदू षण</w>
देव ता</w>
योज ित</w>
मिल ते</w>
मंत्र ि
जाए ं</w>
बन् दे</w>
उ गा
स्व चालित</w>
स ज्
लि ए।</w>
भारती यों</w>
नि ष्ठ</w>
अपे क्षा
हि तों</w>
से टिंग</w>
सला म</w>
लिख े</w>
है ?"</w>
जन न</w>
प्र सार</w>
गुम राह</w>
को य
कु शल</w>
( ग)</w>
मु क्ति</w>
फ़ॉ न्ट</w>
परि चय</w>
चेताव नी</w>
आ नु
मु झ</w>
भ क्त</w>
पहा ड़</w>
गौ र
E )</w>
- 0
ख त्म</w>
निष्क्र िय</w>
चार ्य</w>
अ ली</w>
स् य
ल कड़ी</w>
दा न-
ख ें</w>
अ ति</w>
विका स
महामहि म</w>
े गा,</w>
त मिल
r i
जा ँ
च ें
क् ‍
हो ।"</w>
सं पादन</w>
मुं ह</w>
ख़ ै
उप क्रम</w>
सामू हिक</w>
मु का
मंदि रों</w>
दर् शि
दबा व</w>
तत्व दर्शी</w>
ज़ि र</w>
क ना</w>
इं च</w>
अव सरों</w>
न ियां</w>
दी क</w>
कि स्म</w>
कार ियों</w>
मही नों</w>
हो गी,</w>
सूक्ष् म</w>
कु र्
स् मर
फ स
ऑ परे
ं दा</w>
ं तरण</w>
क्षि प्त</w>
कु श
सुन ते</w>
क्ष ति</w>
क्त ू
ए ं।</w>
देख े</w>
कर ु
इस ी
इ ंग्
à¤ ¼
सु न्
न ों,</w>
काम ना</w>
ए न्
आजा दी</w>
2 8
वार ि
क़ ीन</w>
राज नीति</w>
मॉ डल</w>
पूर्वा व
ग हरी</w>
अनुमो दन</w>
शि व</w>
पै र
केंद्र ित</w>
आ ज्ञा
अ क्तू
समझ ता</w>
क् य</w>
( लोगों</w>
तला श</w>
जान वरों</w>
क स</w>
सुविधा एं</w>
ज़ )</w>
करो )</w>
ल गा।</w>
ज़ा लिमों</w>
ग़ ौर</w>
मोमिन ीन</w>
प्राप् त
ण ियों</w>
क्षमा शील,</w>
6 )</w>
‍ य
सं रच
वि कि
एम .</w>
सू त्र</w>
सीमा ओं</w>
रा हत</w>
मा ध्य
फ् ट</w>
क़ त्ल</w>
अग्र िम</w>
. )</w>
पू र
प ारी</w>
ज ार
.htm l</w>
( इ
स्व च्छ
बा ंग्
त्व चा</w>
साहित्य िक</w>
स ल्
नहीं .</w>
भाग ्य
डेस् कट
अला वा,</w>
s i
सहम त</w>
बु र्
पै माने</w>
ले ती</w>
प्लग इन</w>
पौ धों</w>
तत् काल</w>
च ों</w>
पूछ ा</w>
डिफ़ॉ ल्ट</w>
उल्लेख नीय</w>
5 0
" यदि</w>
श ः</w>
के .</w>
प्रवि ष्टि</w>
प्रभुत्व शाली,</w>
अं क</w>
सी धी</w>
द ह
था न</w>
ा ,</w>
हि त
रु चि</w>
कार णों</w>
एक त्र</w>
ए ल्
अप्रै ल</w>
qu ot
1 ,
दा यों</w>
जि तनी</w>
उल् लं
19 0
सी न</w>
थो ड़ी</w>
अस्प ताल</w>
अग ्
अका द
तुम्ह े</w>
कर ण,</w>
अ भाव</w>
A N
आ समा
अन्तर् गत</w>
ले गा</w>
मछ ली</w>
अनु ज्ञात</w>
चु ना</w>
प दा</w>
टि स</w>
त् म
हम को</w>
संग म</w>
वे शन</w>
वे श
ब ला</w>
ब द्धता</w>
पक्ष ों</w>
कृ तियों</w>
ख़ु श
अ सर</w>
समन्व य</w>
पा ंड
क्यों कि)</w>
करो गे</w>
साझ े
स नीय</w>
फिली स्त
जन रल</w>
कॉन् फ़ि
ओ गे</w>
े य</w>
वा इ
काफि रों</w>
पुस्त कों</w>
करने ,</w>
म कान</w>
ते रा</w>
कु ल
न्द ु</w>
अभ ्या
प न्
नव ं
आ राम</w>
से ल</w>
डेस्कट ॉप</w>
ज रु
संर क्षक</w>
फ़रिश् ते</w>
एशिया /
अर बी</w>
ग न</w>
सदस् यता</w>
स द्
म् भ
ं -
श्र ो
लानेवा लो!</w>
को ष</w>
काफ़ि रों</w>
वि स्
या )</w>
ना एँ</w>
सभ ्यता</w>
व्य स्त</w>
नौ करी</w>
त् कार</w>
चै नल</w>
चै न</w>
कृ ष्ण
अर् जित</w>
d et
या नी</w>
म ्र
न् तर</w>
छु ट
ची जों</w>
ग ए,</w>
कु फ
2 6</w>
ड़ ना</w>
घा टी</w>
निष् पादन</w>
दर्द नाक</w>
जो ड़ा</w>
क पड़े</w>
स्ट ो
सं यंत्र</w>
शि क्षण</w>
ता पूर्ण</w>
जी ,</w>
क्रा ंति</w>
क न्
व्यव स्था
वि फल
मूल भूत</w>
गे ?</w>
आरो प</w>
अ साधारण</w>
2 3</w>
( य
पंजी कृत</w>
क्रि केट</w>
सत्या पन</w>
शो ध</w>
विरू द्ध</w>
गु रु
गा न</w>
ग हरा</w>
क़ दम</w>
स ने</w>
लिमि टेड</w>
प्र त्या
ह ल
व हन</w>
व धि</w>
थ ियों</w>
कुफ ्र</w>
विपण न</w>
ब ंग
परि सर</w>
सम् भव</w>
दा ओं</w>
निशा नियों</w>
ज यं
स व
शा सित</w>
बेहि श्त</w>
है :</w>
भे जी</w>
बना ये</w>
ट ें
पह लू</w>
पु कार</w>
त कों</w>
प्रति भा</w>
दौ र</w>
जा ,</w>
ज त</w>
in g</w>
रूप ों</w>
दि न)</w>
ना य
जन् म
4 .
बौ द्
पू ज्य</w>
जै व</w>
विविध ता</w>
राज स्व</w>
रह ेगा</w>
फ़र मा
त ियाँ</w>
त ित</w>
क़ ा</w>
निका ला</w>
दु ख</w>
टी -
जा दू
ए ं,</w>
ध ु</w>
सं विदा</w>
प ंड
दिना ंक</w>
तु ल
टा बेस</w>
आश्च र्य</w>
पा ँ
तीसर े</w>
जरू र
कै ं
क च्च
वा स्तु
धा नों</w>
दू ँ
ण ता</w>
डा ल
कोशि का</w>
क दार</w>
आ ज़
वरि ष्ठ</w>
रे श
डर ो</w>
ग़ ु
क़ि स्म</w>
अंतरि क्ष</w>
ा ओं</w>
म् मत</w>
c on
A T
त म
जन् नत</w>
आ दान-
श् वे
डॉ लर</w>
कॉ र्
क ना
सक ते।</w>
लगा ए</w>
त ।</w>
जाए ंग
ङ ्
स ारा
वि निय
न ग
आई सी
पर स
ने पाल</w>
दे गा।</w>
ता ंत्रिक</w>
196 1-
िया र</w>
पूर्वाव लोकन</w>
ट रों</w>
क् सी</w>
" ,</w>
चौड़ा ई</w>
ं टी</w>
< /
तमिल ना
ड़ कर</w>
det ail
ो ।</w>
पू र</w>
तत्व ों</w>
ढ े
गो या</w>
वि द्रो
न क्
दृ श्य
कु ं
क़ ब्
अग स्त</w>
माइ क्रो
बो स</w>
पहचा न
धार ित</w>
खा न</w>
रख ्
गु फा</w>
‘ ‘
सं वर्धन</w>
वि धान
वाणिज्य िक</w>
भ ंग</w>
फ लक</w>
तस्वी र</w>
बचा व</w>
नि वार
न ॉ
थ ु
ग्र न्
वा न्</w>
इलेक्ट्र ॉ
मा दा</w>
खतर ा</w>
आ हार</w>
दाय क</w>
दर् द</w>
जी वि
सी डी</w>
पी ढ़ी</w>
० ०</w>
विस्त ार
जीव न
स्व प्
जा या</w>
ख़ े
सि खा
वा प
दिया .</w>
इस्ला म
यहू दी</w>
म तों</w>
ता कत</w>
लक्ष ्
तकली फ़</w>
आं ध्र</w>
मार् च,</w>
ए ड
सश क्त</w>
कथ न</w>
शक्ति शाली</w>
फ़रिश् तों</w>
फ़ ी
प त</w>
नि वासी</w>
कर् तव्य</w>
उ प</w>
u n
( व
सं क्रमण</w>
छ े
मिला कर</w>
प ना
नि ष्ठ
स्ट ॉ
सु भाष</w>
सह भा
बैं किंग</w>
टिप्प णी</w>
टि व</w>
इसरा ईल</w>
(ख़ु दा)</w>
यूनि ट</w>
ति -
जु र्
च ट्
सो स</w>
संभा वित</w>
बा ज</w>
बज ट</w>
फू ल</w>
परिव ारों</w>
अ त
à¥à¤ </w>
l o
f or
स वार</w>
म स
पी ने</w>
औ रत</w>
id en
शिका य
डा .</w>
ड ु</w>
" तुम</w>
बन् ध</w>
निक ट
हैं :</w>
हार िक</w>
स्की म</w>
व -
रह मान</w>
प्रा न्त</w>
निर् माण
निका य</w>
मा सिक</w>
पर् वत</w>
व्य ु
वि ष्ण
लाभ ों</w>
न ती</w>
सहम ति</w>
वि निर्माण</w>
ध्व ज</w>
द ार्
कोल का
का मों</w>
उप करणों</w>
अ र</w>
दौ रा
ज र
स्मार क</w>
दो हरा
डिजि टल</w>
जान वर</w>
उपयोग कर्ता</w>
तरह )</w>
जयं ती</w>
ऊंचा ई</w>
ंच ी</w>
1961- 2018</w>
व ण</w>
पा ँच</w>
परस ति
का नों</w>
शो र</w>
व ारों</w>
पे क्ष</w>
जा इ
लौ टा
जे क्ट</w>
जी वा
कर् नाटक</w>
सं दाय</w>
रा हे</w>
प का
दि व्य</w>
ख ू
क्र मा
e m
8 0
बढ़ ने</w>
ब ढा
पो जी
( पी
हू ं,</w>
लाइस ेंस</w>
बे च
बिगा ड़</w>
द्ध ा</w>
दक्षि णी</w>
त व्य
चुनौ तियों</w>
200 1</w>
व न
प्र िय
जिस पर</w>
ख़ बरी</w>
करने वा
- re
भेज ें</w>
बौद् धिक</w>
पिछ ली</w>
ज्ञा न
मर ने</w>
समु चित</w>
बाग़ ों</w>
पैर वी</w>
इ जा
रि जर्
रह ेंगे।</w>
ब हि
क़ु बूल</w>
इस्ला मी</w>
आ ओ</w>
अग ली</w>
quot ;</w>
सला ह
द या</w>
की र्
अन् तर
es iden
सक ेगा</w>
र वि
कथ ित</w>
र सा
ची ज़े</w>
9 -
वै सा</w>
फ़िर औन</w>
फ र</w>
पा ए
दि मा
घ र
अनुसार ,</w>
संचा लित</w>
छुट कारा</w>
3 .</w>
मे न</w>
फ् लै
त न
प ब्
त क,</w>
जल ि</w>
चरि त्र</w>
www .
e d
हो गे</w>
मनुष ्यों</w>
दर् श
इंड ियन</w>
लग े।</w>
पुरु षों</w>
सर पर
द -
जु ड़ा</w>
१ ८
सूच ी
न ती
आप से</w>
स् र</w>
बन कर</w>
प्रति भूति</w>
गति शील</w>
1 /
ल् ड
“ %</w>
प्या र</w>
पदार्थ ों</w>
201 4</w>
सिफारि श</w>
शा ंति
ल ार्
ब स्तियों</w>
to fin
esiden tofin
पक्ष ी</w>
चा ँ
esidentofin dia
वि धिक</w>
कि ए।</w>
ड ियों</w>
चा य</w>
कोवि न्द</w>
पहु ंचा</w>
प ,</w>
अ ट
िय ु
सफल तापूर्वक</w>
लग ती</w>
बहा दु
ख र्
र् थ</w>
काफ़ि र</w>
स् के
प न
करें ...</w>
आन न्द</w>
leas e-
है ,
व्यक्ति त्व</w>
ला ल
टुक ड़े</w>
कठिना ई</w>
अर् ज़</w>
-re lease-
संशो धित</w>
सक ें</w>
व य
भू -
जु लाई</w>
इस पर</w>
आयु र्
संगठ ित</w>
वर ी
रवी न्द्रनाथ</w>
ज़ ो
क्ष ति
कारो बार</w>
व ्र
ess -release-
ess-release- detail
c om
.htm ?
( सी
वै धा
रिजर् व</w>
पर े</w>
आदान- प्रदान</w>
8 0</w>
है दरा
सं स्थापित</w>
सं गी
रि पोर्
प्र वृत्ति</w>
पं च
धा तु</w>
दृ ढ़
जा तीय</w>
कहा ।</w>
ई ं
आ बादी</w>
सम ्रा
मुख ी</w>
पौ धे</w>
आसमा नों</w>
( हर</w>
( उस
स्ता नी</w>
संतु लन</w>
संग्रहा लय</w>
ल िया,</w>
भार त
esidentofindia .nic.in/pr
esidentofindia.nic.in/pr ess-release-detail
वी र</w>
रा मा
पै र</w>
ध म
आर ंभिक</w>
मोमि न</w>
धी रे-
वर्ण ित</w>
लोग ो</w>
प्रे म
प्रवि ष्ट</w>
प त्रिका</w>
दे ंग
डिजा इन</w>
भा ंति</w>
द ंड
ड ै
आ ह्
ं ब
सु संगत</w>
स में</w>
फ़ाइ ल
झ ों
ज़ कात</w>
गरी बी</w>
वं चित</w>
व स्त्र</w>
मा ता-
भार त-
भा ष्
तो ड़</w>
( S)</w>
ब्रि टेन</w>
बल् ले
क्र ी
अ समर्थ</w>
स्थाप न</w>
धि कारी</w>
क् ताओं</w>
उल्लं घन</w>
स्व र</w>
सामान्य तः</w>
बचा ने</w>
परि चित</w>
उपलब् धि</w>
2 7</w>
हाँ ,</w>
पहुंच ने</w>
ग् ध</w>
स्तर ों</w>
श्र मिक</w>
यथा स्थिति,</w>
ज़ि म्मे
छा त्र</w>
ग्रा फ</w>
a g
यु द्ध
मा ं
दो ज़
डी .</w>
एम एस
ई )</w>
अके ले</w>
शर् त</w>
मे ट</w>
प टल</w>
200 5</w>
हिमा लय</w>
वक्त )</w>
मु गल</w>
प्रकाश ना</w>
पै से</w>
परसति श</w>
न्याय िक</w>
तरी कों</w>
ख्ते यार</w>
बॉ क्स</w>
पु रू
निक लने</w>
गिरफ् तार</w>
आमंत्र ित</w>
आउट पुट</w>
फै ला</w>
प्र साद</w>
दिल च
खा ओ</w>
क् का</w>
A M
ग ,</w>
आ क
à¤ µ
1 )</w>
ची जें</w>
सो चा</w>
व ें
पड़ा ।</w>
अब् दु
अन् तिम</w>
स् को
प्र द</w>
द ं
ग हन</w>
इन से</w>
आ या।</w>
अस ल</w>
सं क्षिप्त</w>
विशेष ज्ञ</w>
विभा गों</w>
बी मार</w>
ना त</w>
ढ ो
जीव न-
ज मी
कम रे</w>
बो र्
डरा ने</w>
जान कर</w>
वकी ल</w>
बै क
खु श</w>
( सब
फ ार
प्रा ण</w>
ड कर</w>
छ ा</w>
उत्तर दायी</w>
अल ब
वि क्रय</w>
वाक़ि फ</w>
ठ हर
ऑ ं
मु ता
मि ंग</w>
भाष् ;</w>
बै ंक
ने अ
उप -
उद्या न</w>
- hi
सक ों</w>
स मानता</w>
विचार -वि
अमरी की</w>
अम ल</w>
अत्या चारी</w>
मि ट</w>
ना .</w>
ख नि
3 .
-hi .htm?
सर कार
शा न्
प्रो फे
प्रो ग्रा
प्रति दिन</w>
प ठ
चाह ती</w>
अस म</w>
ते .</w>
ज्य ो
I )</w>
लेख ों</w>
यु क्त
द्वारा ,</w>
सम् पर्क</w>
एकी कृत</w>
विवरण :</w>
प्रे षण</w>
पहुँ चे</w>
क्रिप् ट</w>
" और</w>
सू रत</w>
साक्ष ्य</w>
मुसल मान
मद दगार</w>
esidentofindia.nic.in/press-release-detail -hi.htm?
बढ़ ते</w>
प्र वा
द रख्
चाह ा</w>
उप े
सं देय</w>
वैधा निक</w>
त ट
ई साई</w>
अर् ध
सो ने</w>
समा हित</w>
शु रू
शिक्ष कों</w>
न् त्र
डि ट</w>
t o</w>
रू पां
योग ्यता</w>
भू त
पोजी शन</w>
कुछ )</w>
रो का</w>
इला ज</w>
आर .</w>
सिद्धा ंतों</w>
व्यु त्
कर ूँ
उच्च तर</w>
अ सफल
( व</w>
( 4)</w>
सर ी
ता जी</w>
किलो मीटर</w>
आ श्र
M )</w>
सचे त</w>
पास वर्ड</w>
पाद ित</w>
धीरे- धीरे</w>
सन् देह</w>
य िक</w>
पड़ ती</w>
प दों</w>
उ भर
ईमान वाले</w>
आ बं
3 0
ह र्
सह ारा</w>
विद्य ार्थी</w>
दा म</w>
करे गा,</w>
200 7</w>
सि ल
स च
ला भा
बी स</w>
पल ट</w>
उद्देश ्यों</w>
आ धि
पू ंजी
त ब
आई .</w>
वि मान
फाय दा</w>
गर )</w>
http:/ /
साझ ी</w>
विद् वा
न् ‍
गहरा ई</w>
अधि करण</w>
( सब</w>
स्टे शन</w>
पर म</w>
न ः</w>
झुठ ला</w>
जु ड़ी</w>
चा हें</w>
आ ज
à¤ ¤
मौ लिक</w>
फ ज़ल</w>
च ेक</w>
आद म</w>
अव य
ंड ी</w>
(ii i)</w>
ब ृ
साह ब</w>
खी ंच
अनु पालन</w>
र् क</w>
प्रि ं
नाम ः</w>
काग ज</w>
उर् वर
-#-# -#-#
# -#-#-#-#
द श
ख ून</w>
20 0</w>
रस् थ</w>
अपना या</w>
s h
हो नें</w>
ल ेंगे</w>
रह े,</w>
मा ंग
कला पों</w>
बा हम</w>
ग हरे</w>
सरपर स्त</w>
स ीय</w>
पहा ड़ी</w>
दा वे</w>
ख़े रत</w>
इ ब
2 9</w>
शि शु</w>
विन य</w>
फार् म</w>
स फ़
शर ण</w>
रू पा
पूछ ो</w>
ज़ रिए</w>
गो ल</w>
सम् मानित</w>
स िया
ती स</w>
ट ी,</w>
हिंदु स्तान</w>
शैक्ष णिक</w>
य थ
पर्या वर
दे गें</w>
त ंग</w>
म ू</w>
बे टा</w>
बु ल
प्रति भा
स्ट ै
सी ,</w>
सा स</w>
सच्च ी</w>
ल ी।</w>
बाद शाह</w>
टू ट</w>
u b
पै रा
टा ई</w>
s e
लि खा
महारा जा</w>
प्र को
पं थी</w>
दर्शि ता</w>
ग ो</w>
करें गे,</w>
रा जा
पथ भ्र
दा ताओं</w>
भर् ती</w>
दू रस्थ</w>
साह स</w>
शा नदार</w>
मर् द</w>
नि श्
दी दा</w>
स च्
वाप सी</w>
लड़ की</w>
क् ता
अल् ला
v er
a p
( आख़ि
लग े,</w>
बच त</w>
ब ने
इसी लिए</w>
O R
बन् दी</w>
कॉ लेज</w>
काम या
क़ े</w>
क़ त</w>
अग र
रा व</w>
पूर्ण ता</w>
दा ई</w>
जी .</w>
च्छ िक</w>
क मी
अप ू
त ह
जी वों</w>
ख् वाह</w>
प शु</w>
ण ्य</w>
स ्रा
वि कता</w>
दि सम्
तु क</w>
छ त</w>
च न्द्र
ग्राह कों</w>
स हि
भं डार</w>
ब डी</w>
ध ्र
ज् र</w>
ज़ बरद
गर् म</w>
क़ा दिर</w>
आ चरण</w>
ढ़ े</w>
ट ते</w>
उ तनी</w>
9 0</w>
सि स</w>
दि रा</w>
ता एँ</w>
का एं</w>
आ कृति</w>
अ क्षर</w>
ज ं
अन् त</w>
प्रभा र</w>
प्र भाग</w>
स कारात्मक</w>
म णि
B )</w>
वां छ
उल् लिखित</w>
अनु सूची</w>
ु क</w>
य ि
द्व ार
सौ दा</w>
सी -
न ौ</w>
चु न</w>
का ।</w>
का यम</w>
कर ों</w>
( एन
व स्था</w>
नेअ मत</w>
निका लने</w>
त स्
ग ई.</w>
ख़ौ फ</w>
कोशि काओं</w>
आ फ</w>
जा ंच
अं कित</w>
समि तियों</w>
बि न</w>
पा की
निष्कर् ष</w>
जहा ज</w>
कू ट</w>
इन् सान</w>
आलो चना</w>
स्वामि त्व</w>
लो ।</w>
बो लते</w>
प ते</w>
दाहि ने</w>
दर् य</w>
चाहि ए
मी ल</w>
फर् म</w>
पैके ज</w>
पुन ः
शा ंत</w>
ल भ</w>
मि थ
घट ना
अ ख
सर ो
म ल्
बा इ
प्र संग</w>
खा स
आ ज्ञा</w>
श्र द्धा
ती करण</w>
च्छ े
अक् टू
ou n
तुर् की</w>
क्ष ण
का व्य
्य ,</w>
श्री मती</w>
बख् श</w>
पे ट्रो
गाँ व</w>
की .</w>
ली स</w>
ला कर</w>
रि क्त</w>
मि स्र</w>
तैय ारी</w>
ताप मान</w>
गु णों</w>
सं पन्न</w>
च तुर्
आ माल</w>
ह लाल</w>
शि ष्ट</w>
पड़ े
दू त</w>
दर्शा ता</w>
छा या</w>
चै त
कह ेंगे</w>
हा ज़िर</w>
स्ट ि
वारि स</w>
मि न</w>
ब म</w>
अनु या
सम् पत्ति</w>
लगा ना</w>
रा शि
ता ल
डी वी
क ू</w>
s ”</w>
संभव तः</w>
गा य
सी आर
समु दायों</w>
ला नत</w>
महा भारत</w>
दर् जे</w>
चं द्र
.201 4</w>
( ए
से ना
देव ताओं</w>
छो ड़ा</w>
C on
हम े</w>
सर् वि
श्र ा
वि भिन्
व ु
मा ंस</w>
अ रु
/ -</w>
दा नों</w>
थी ं,</w>
ता प</w>
7 )</w>
बैठ ा</w>
औप चारिक</w>
ू र</w>
प्रमाण ित</w>
पू ज्य
दि ल्
c ol
सरक श</w>
संहि ता</w>
मिश्र ण</w>
म ता</w>
फ )</w>
ट ियाँ</w>
( घ
हा थी</w>
शु क्र
शि क्षित</w>
वि कल्प
प्रति भू
ठ े
गु जरा
अके ला</w>
रे डियो</w>
म त्
फे र
घट ित</w>
अनुमो दित</w>
ं सिल</w>
I S
हा नि
शि व
ला एं</w>
म िया
ड -
उत्सा ह</w>
ं तरित</w>
http:// www.
सा )</w>
शो थ</w>
वैज्ञा निकों</w>
रहे गा।</w>
बु क</w>
बह स</w>
ग्रं थ</w>
अंतरा ल</w>
वि वा
रह म</w>
क्रा ंति
अनु कू
ले न-
में .</w>
मु च</w>
प्रक्रिया ओं</w>
क् वा
अस ली</w>
हस्त क्षेप</w>
हर ण</w>
ह ारी</w>
र् व</w>
मंजू री</w>
न् त
दुर् घटना</w>
घु मा
का -
अत्या चार</w>
भौ गो
ज म
विद् वान</w>
दर िया</w>
( ब
जवा हर
अल ं
सिं चाई</w>
सत त</w>
लगा ते</w>
फ ं
जिम्मे दार</w>
क़ा बू</w>
विष य
प्र था</w>
राज भाषा</w>
पीड़ ित</w>
तं त्र
L )</w>
सो साइ
रि ज़
उत् ते
सम झे</w>
रख कर</w>
या ची</w>
ब ो</w>
जि तने</w>
क ड़ा</w>
ह ड़
बि न्दु</w>
प्रति कूल</w>
प्र ॉ
दौरा न,</w>
जाय ेगा।</w>
उत ारा</w>
ी करण
लो गो
बै ठ</w>
फो ल्डर</w>
नी -
निका ह</w>
जीवि का</w>
के शन</w>
उ पर</w>
(क़ु रान)</w>
सै न्य</w>
वि ज्ञ
ब च</w>
कोलका ता</w>
एन .</w>
f r
१९ ९
स् वर्ण</w>
श िया</w>
वा ल</w>
लै ंड
रख ती</w>
पार स्
दुश् मन</w>
तस बीह</w>
जा पान</w>
विचार-वि मर्श</w>
ना र</w>
य ह
मंड प</w>
पुस्त कें</w>
और तें</w>
आत् म-
5 -
-प्र भु</w>
िय ों
हला क</w>
विष्ण ु</w>
प्रश् नों</w>
प्रभार ्य</w>
चढ़ ा
( क्योंकि)</w>
हैदरा बाद</w>
वा हन</w>
मुद् दे</w>
सं त</w>
ला -
प्रस न्न</w>
चं द्र</w>
( कु
डा लते</w>
क् कर</w>
ं व</w>
à¤ à¤
H T
ला स</w>
पार् क</w>
पा ना</w>
डि ब
आह् वान</w>
आका ं
अभि दाता</w>
5 00</w>
स ऋ-ऊण्श्छ्ष्-
दो ।</w>
टर् न</w>
s .</w>
सार् व
सक ता.</w>
पर वाह</w>
गांधी जी</w>
कृत ज्ञता</w>
अनु भ
हा उस</w>
लु ओं</w>
मि टा</w>
पुकार ते</w>
ना यक</w>
जाय े।</w>
चें ज</w>
क्रम शः</w>
क ः</w>
201 3</w>
मा तृ
गर् व</w>
आद मियों</w>
ें ः</w>
सीख ने</w>
लोक तांत्रिक</w>
प्रस्ता वित</w>
परि वेश</w>
का य</w>
सं पदा</w>
रखा व</w>
मंत्र ी,</w>
प्र वासी</w>
धार क</w>
जवाहर लाल</w>
उपा यों</w>
इन पुट</w>
t )</w>
200 6</w>
शिल् प</w>
व्या पारी</w>
प्र जा
निर् देशों</w>
त् ते</w>
चित्र ण</w>
खतर े</w>
क्षा ओं</w>
समा पन</w>
बंध न</w>
पारस् परिक</w>
न्याया लयों</w>
निर् या
तमिलना डु</w>
गि रा
फ़िल् टर</w>
ज़ि म्
w or
भौगो लिक</w>
न गर
ड़ िया</w>
à¥ </w>
ह जारों</w>
म ला
पूज्य -प्रभु</w>
पंड ित</w>
कर के)</w>
विवर णी</w>
बो ध</w>
ट्रै क</w>
क्ष ों</w>
किन् हीं</w>
का ले</w>
एक दम</w>
इ ंग
अर् पित</w>
अ सं
सितं बर</w>
रो गों</w>
कल्प िक</w>
अप ा
साथ ियों</w>
सर् जन</w>
ते ?</w>
3 5</w>
लं बाई</w>
मि कों</w>
त ारा
जो ड़े</w>
करे गी।</w>
शु ल्
पर त</w>
चैत न्य</w>
च क्र
ख न
रही ।</w>
फल स्वरूप</w>
कला प</w>
आ कलन</w>
http://www. pr
ब ्य
ढ ूँ
क ते</w>
o )</w>
195 6</w>
सम्बन् धित</w>
वै दिक</w>
बं दी</w>
फ़ ा</w>
कै सी</w>
I N
201 5</w>
क्रे डिट</w>
à¤ °</w>
वास्त विकता</w>
राष्ट्र ी
मृ त</w>
मार् क</w>
बो ली</w>
दर् शक</w>
द शकों</w>
ज़ ों</w>
च लन</w>
कार ी
à¤ «
से ।</w>
मि त्रों</w>
आप सी</w>
N AM
शेय रों</w>
बा ल
न .</w>
कुश लता</w>
कार ण,</w>
अभि न
सा धनों</w>
फो टो</w>
प ड
टि न</w>
à¤ 
लिख ते</w>
य ंत्र
दी क्षा
एजें सी</w>
एँ .</w>
उर् दू</w>
आधार भूत</w>
अपरा धी</w>
4 5</w>
हो गी
बा प-
प्ल स</w>
त ः
क़ सम
करा ना</w>
आई टी</w>
आं शिक</w>
अ श्
à¥ </w>
समय- समय</w>
प्रो जेक्ट</w>
निर् मा
नि धन</w>
नव ीन</w>
दा तर</w>
इ ल्
अलब त्ता</w>
व च
ति ज</w>
त ारा</w>
इं त
U )</w>
हिमा चल</w>
सु ख
सक ल</w>
मानव ता</w>
बी .</w>
बार -
ज ड़</w>
आतंक वादी</w>
ँ ,</w>
- से</w>
्य क</w>
पि ,</w>
दर बार</w>
तथा पि</w>
ड ्रा
झू ठे</w>
क्ष ी</w>
अमरी का</w>
7 5</w>
वसू ली</w>
पुरा ना</w>
चो ट</w>
कृष ि
कार् बन</w>
स्मर ण</w>
सि रे</w>
सका ः%</w>
मज़बू त</w>
भग वान्</w>
नि स्तान</w>
à¤ à¥à¤
O )</w>
प्र संस्करण</w>
त् वर
ती नों</w>
डि स्
ख बर</w>
ल ें।</w>
दो ष
संगण ना</w>
माता- पिता</w>
जर् मनी</w>
en er
11 5
0 2
सूच क</w>
बु लाया</w>
जंग ल</w>
क हां</w>
ए च</w>
लेख कों</w>
मु हा
पै दा
अ खिल</w>
स्ट ार्
त्व ों</w>
ड ियो
अना ज</w>
अंग्रे ज</w>
200 2</w>
े श</w>
श त्रु
पु री</w>
का ला
अधि सूचित</w>
लि ए.</w>
बो ले,</w>
ता ब</w>
गति विधि</w>
ऑ फ़
( अज़ाब</w>
( अज़ा
व्याव हारिक</w>
मे मो
फ़िल् म)</w>
उ तार</w>
I n
सच मुच</w>
बहुत- से</w>
ढा ंचा</w>
सु ख</w>
साव धानी</w>
सा ,</w>
सं धि</w>
विश्व सनीय</w>
लॉ क</w>
फिलीस्त ी
ट्यू ब</w>
जाए ंगे।</w>
का ली</w>
वै कल्पिक</w>
द त</w>
टे ल</w>
क .</w>
अव ज्ञा</w>
अं दा
a n</w>
T R
स न
विद्वा नों</w>
ला य
पूर्व वर्ती</w>
त्र ियों</w>
गर् मी</w>
ti n
http://www.pr esidentofindia.nic.in/press-release-detail-hi.htm?
@inf o
स्थ ि</w>
स्त ,</w>
ला एँ</w>
मशी नरी</w>
म त)</w>
फर वरी</w>
ग ड़
कार्य रत</w>
सि टी</w>
नारा यण</w>
5 .
ें द्र</w>
सम्रा ट</w>
ला म</w>
या .</w>
मु ल्क</w>
जि ं
खि सका
क्त ,</w>
सह योगी</w>
व्य ं
वै य
लं बा</w>
मोह म्मद</w>
बी मार
पै सा</w>
पसं दीदा</w>
उन् होनें</w>
हो ;</w>
संतु ष्ट</w>
भाव नाओं</w>
कम ज़ोर</w>
आंक ड़ा</w>
संलग् नक</w>
बंध ित</w>
प्र कार,</w>
ट ू</w>
गर् भ
्य ार
न ू</w>
जै न</w>
जागरू कता</w>
जम् मू</w>
जन वरी,</w>
अभ ियो
रे ख
प्र वर्तन</w>
पु र
दे ंगे।</w>
चिकित् सक</w>
क़ समें</w>
उत्पाद क</w>
अ तीत</w>
सत्या पित</w>
स ियत</w>
बर )</w>
परिवर्त नों</w>
ट ः</w>
à¤ ¦
दार् श
कला कार</w>
कम्प ्यूटर</w>
आ यी</w>
th er</w>
सू त्र
सं देश
शा स्त्री</w>
पा एँ</w>
डा लने</w>
अधिकार िता</w>
b o
हो ती।</w>
से क्टर</w>
ता ः</w>
डि ग्री</w>
कच रा</w>
क क्षा</w>
अपना ने</w>
अधि कृत</w>
पाकी ज़ा</w>
निष्ठ ा</w>
ता ज</w>
ड़ -
a d
ला देश</w>
पना ह</w>
दे शा
3 -
रसा यन</w>
भ ै
निका ले</w>
ति ल</w>
अंग्रे जों</w>
स्वप् न</w>
समर् पण</w>
संस्था न,</w>
व सी
ला एँ
प्र जनन</w>
१ ५
सं पर्
लाइ ब्रे
ल ियां</w>
कोर् ट</w>
साक्ष ी</w>
च लाया</w>
इं ट</w>
रं जन</w>
मूर् ति
बता ता</w>
त .</w>
ेंगे ?</w>
इका इयों</w>
अर् जन</w>
लिख ना</w>
मि नल</w>
बच ने</w>
तू र</w>
कि क</w>
क टि
अगर चे</w>
( फिर</w>
हटा ने</w>
स्व भाव</w>
लड़ का</w>
योज नाएं</w>
भर पूर</w>
प्रोफे सर</w>
प्राव धानों</w>
पृथ क</w>
नि स</w>
ग्र ि
गर् भा
क ्</w>
एह सान</w>
सक ेगा।</w>
विका स,</w>
पि ंग</w>
ना मा
आर क्षित</w>
अ जी
à¤ ¬
ह कदार</w>
स् कै
लं दन</w>
रा ज़ी</w>
बाप- दादा</w>
बा धा</w>
पर्य ट
निय न</w>
गें द</w>
ख ्य
का य
स्रो तों</w>
व िय
प्रभाव शाली</w>
पह लुओं</w>
न दियों</w>
कृ त्रि
कु ंजी
अंत ः
सम् पन्न</w>
शास क</w>
विष ा
र त्
म ग़
बि ता
प्रति दान</w>
पीछ ा</w>
क त
अंत तः</w>
C h
20 20</w>
लो ं,</w>
बा क़ी</w>
ढ़ ा
194 7</w>
सा लों</w>
वि तरित</w>
मान नीय</w>
आय कर</w>
200 8</w>
योज ना
य हीं</w>
दिमा ग</w>
च लती</w>
ख् वाहि
की टों</w>
क मे
आ स्तियों</w>
अभि गम</w>
बता ते</w>
प्रति फल</w>
परो क्ष</w>
तथ ्यों</w>
कि ले</w>
स्पष्ट ीकरण
सी सी</w>
रि कार्ड</w>
राष्ट्र ों</w>
बार ह</w>
पी )</w>
जादू गर</w>
( अप
है -</w>
भ या
ध्य क्ष</w>
क्ष ु
के डी
इरा दा</w>
अ स्थि
s p
g n
7 0</w>
य क़ीन</w>
पब् लिक</w>
द् व</w>
जि लों</w>
201 2</w>
बा यो
ब ारी
टी .</w>
का या</w>
अन ्या
बा जी</w>
परि वर्
नी यता</w>
ध ना</w>
तं त्रिका</w>
आई डी</w>
w ea
2 9
हूँ ।"</w>
वि डियो</w>
रामा यण</w>
भर ने</w>
पे शे
ज़ बान</w>
ख ौ
उन् हे</w>
उत्तर -
र् द</w>
तबा ही</w>
गु ं
करें ः</w>
3 5
( मुसलमान
स् वे
मो र्
बन ना</w>
पूर क</w>
पिछ ला</w>
दोज़ ख़</w>
उठा ना</w>
आ भा
अफ गा
अं ध
‍ या
विवे का
प्रा संग
घ निष्ठ</w>
क्र िया।</w>
अध्य क्षता</w>
e g
स मान
भे द
दस्तावे जों</w>
त् त
टाइ प</w>
जाँ च
कॉ र्ड</w>
अन े
ह ं
सं पत्
विज्ञ प्ति</w>
डीवी डी</w>
चीज़ ें</w>
गू गल</w>
ऑ क्
प्रासंग िक</w>
य था</w>
मा ला</w>
फस लों</w>
देश वासियों</w>
ट ीन</w>
कि ए,</w>
आ धा</w>
हा स</w>
साझे दारी</w>
प्राधि कृत</w>
ना ब
ट्र ी</w>
ई रान</w>
स् क्रिप्ट</w>
या त्रा
फ़ाइ लों</w>
ग ई,</w>
कार्या न्वित</w>
करना ;</w>
आँ खों</w>
अफ्री का/
लेन- देन</w>
तिया र</w>
चा ल
की करण</w>
क न
बन ता</w>
पा लि
परि भाषा</w>
द् दीन</w>
दौ ड़</w>
द वा</w>
ज़ ्
क्रिया ओं</w>
को र</w>
हो गें</w>
स्था ई</w>
वि लो
या ता
बू झ
बा लों</w>
ध ूप</w>
कु र</w>
कनेक् ट</w>
t er
( याद</w>
वि ष्ट</w>
ल घु
ख ै
ओ ।</w>
आ श्
- और</w>
बार- बार</w>
जन ,</w>
ज ड़
à¤ ¯
- पत्र</w>
( ह
म रा</w>
द लील</w>
जी वी</w>
ख नन</w>
अभ्या स</w>
201 6</w>
रच नात्मक</w>
पूर्ण तः</w>
ढ़ ा</w>
उप ज</w>
इस लिए,</w>
n )</w>
8 )</w>
व्यापार िक</w>
जान ना</w>
एशिया ई</w>
आ शय</w>
S L
4 .</w>
-- --
लक्ष ्यों</w>
यूरोप /
ब हन</w>
फा र</w>
अ ड्
साइ ड</w>
समू द</w>
विद्रो ह</w>
ला खों</w>
ज़ र
गण ित</w>
आ ख़ेरत</w>
अ कार
सं चित</w>
लम् बी</w>
प्रयो क्ता</w>
पि क्
प ू</w>
नक द</w>
ई ं</w>
2 ,
प टा
गं तव्य</w>
सक ती।</w>
वर्ष ीय</w>
लं का</w>
परे शा
ड्यू ल</w>
" मेरे</w>
मि त्र
उड़ ी
à¤ à¤°
रि स</w>
फॉर् म</w>
पू ज
आ ए।</w>
तत् त्व</w>
साय निक</w>
संशो ध
श राब</w>
रे ख</w>
कमा ई</w>
ऋ ण
6 -
व्या पी</w>
लौ टा</w>
मर ियम</w>
मंत्र ियों</w>
बे ल
बी )</w>
फ े</w>
ठ ों</w>
गार ंटी</w>
प्रतिष्ठ ा
कर् मों</w>
उ ंड
अपी ल
होंग े
सुधार ों</w>
च्छ ा
का ने</w>
लोक सभा</w>
ले बल</w>
रा स्त</w>
मिला ।</w>
भ विष
बे टों</w>
ह क</w>
सा क्षा
मुह म्मद</w>
प्रतिष्ठ ा</w>
परंपरा गत</w>
तीसर ा</w>
ड़ ो</w>
झू ठा</w>
शास्त्र ीय</w>
रोक ते</w>
नि चले</w>
धन्य वाद</w>
दिखा यें</w>
केंद्र ों</w>
कार िक</w>
हर िया
ल ट
फू ँ
पुन रा
कार्य -
अभि भाषण</w>
ह रे
सभा पति</w>
र ित</w>
पह ले,</w>
न जात</w>
ट्रा ं
गि नती</w>
एक त्र
wea ther</w>
प्रणा लियों</w>
पुकार ा</w>
पचा स</w>
ढूंढ ें</w>
टर् मिनल</w>
गो र</w>
गां ठ</w>
ख र
क ष्ट</w>
अं धे
( स
ह वीं</w>
पढ़ ते</w>
तीसर ी</w>
टि का</w>
जरू र</w>
ार त</w>
हुआ .</w>
स्त ंभ
सि फ़
कें ड</w>
इंग् लैंड</w>
अपेक्षा कृत</w>
अ टल</w>
d e
सै निकों</w>
मान कों</w>
बता ने</w>
न कारात्मक</w>
त् ति</w>
त ली</w>
जन -
गा य</w>
हु कू
हस्ता क्ष
मन पसंद</w>
निक ले</w>
धार कों</w>
दीक्षा ंत</w>
चं द</w>
आ द</w>
गा ड़ी</w>
खिला ड़ी</w>
ऋ ष
ईं धन</w>
महत् त्व</w>
ज रा</w>
क् तिक</w>
ऑफ़ लाइन</w>
ः -</w>
an c
हथ ियार</w>
स्व ै
लाइ ट</w>
मौ का</w>
बहादु र</w>
प्रार म्भ</w>
प्रति वादी</w>
प्रति बद्धता</w>
दा न
ओ )</w>
इन् हीं</w>
सम य,</w>
ट ित</w>
क् ल
के श
इ म्
G ener
सलाह कार</w>
ष ा</w>
वा नी</w>
मुकद मा</w>
बे डकर</w>
प्रयो गों</w>
पू छ</w>
चा वल</w>
गु प्
कानू नों</w>
कंप ्यू
201 7</w>
199 9</w>
वाणि ज्य</w>
या त्री</w>
म ारा</w>
प्रसार ण</w>
प य</w>
जरूर तों</w>
सक े,</w>
स वीं</w>
वे शी</w>
वि देशों</w>
माँ ग</w>
ज गत</w>
ग ारी</w>
ग ले</w>
का ला</w>
आई एस
o f
4 -
ें ...</w>
मान ने</w>
ज ला
क्ष ,</w>
कार्या लयों</w>
वि कला
मुख्य तः</w>
म द्रा
बु ला</w>
बा ध्य</w>
ब डे</w>
ता अत</w>
करा ता</w>
.201 5</w>
लोगो !</w>
ए हद</w>
अनि वासी</w>
(मुसलमान ों)</w>
भौ ति
द क्षता</w>
ज़ा म</w>
अन ू
à¥ à¤
स की</w>
मंजू र</w>
भा इयों</w>
w h
हम पर</w>
ब त
नमू ना</w>
दु निया
जे .</w>
क्ष ण,</w>
उत् सव</w>
ई श्वर
{0 }</w>
वै ष्ण
वे दन</w>
या ल</w>
मै न</w>
मा ,</w>
मत दान</w>
फै ल</w>
पु ण
छो टे
कृत्रि म</w>
( c
हम ला</w>
ह -
ले -
मजबू र</w>
पढ़ ा
ना न</w>
द ल
कार्य कारी</w>
मं द</w>
बि ट</w>
x )</w>
u m
सं देशों</w>
थ न</w>
ठ हरा</w>
इजा ज़त</w>
सुन ता</w>
वि क्रे
डर ता</w>
गो प
कु बूल</w>
उपलब्ध ता</w>
अल -
अ ज
स ेंट</w>
लि ंग
ला न</w>
ब क्
पा ंच
ड ो</w>
को श</w>
उ ठ</w>
अ सामान्य</w>
वै सी</w>
ले न
पर् व</w>
था )</w>
त्य ों</w>
ग मन</w>
हो टल</w>
से न</w>
सू द</w>
वि भेद</w>
याता यात</w>
मिश्र ित</w>
निर पेक्ष</w>
त्र ी
दिसं बर</w>
थ ै
झ ो
र् या
यू आर
फरमा या</w>
प्र चार
दो -
दुर् लभ</w>
तकली फ</w>
ढा ँ
18 8
सु ले
समा मे
स िय
ब्र ै
पड़ ने</w>
च श्
क ति
ए सो
अ क्ष</w>
स्टे ट</w>
सच् चाई</w>
रो ज़</w>
रच नाओं</w>
परि पक्
दे हा
छु ट्टी</w>
इं दिरा</w>
\ \</w>
(आख़ि र)</w>
प्ल गिन</w>
की -
कि म</w>
और ,</w>
आ जीविका</w>
हिस् सों</w>
प त्रि
निर् माता</w>
द रों</w>
टेली फोन</w>
उद्य मों</w>
उत्कृ ष्टता</w>
अनु चित</w>
सार णी</w>
शं का</w>
फ्र ें
पंजा बी</w>
ज रत</w>
हो गी.</w>
भविष ्य
पूछ ते</w>
पहा ड़ों</w>
टि कट</w>
छा त्र
ग् लो
ग़ै र</w>
करें गे
अं डे</w>
ली ग</w>
प्रशि क्षित</w>
पी ड
जहा ँ
ज ॉर्
आ ज़ा
अंश दान</w>
अ मान
शीर्ष िका</w>
विना श</w>
रच ना
मस्जि द</w>
परे खा</w>
तु ल्य
उत् ‍
ू ल</w>
सह योग
समा चार
सक ने</w>
भागी दार</w>
फरिश् ते</w>
प द्
नू र</w>
नि ंदा</w>
चु प
खा तों</w>
सिफ़ ारि
द लों</w>
खनि ज</w>
आवे द
अभ िया
िया ं,</w>
बहु मत</w>
पो रेट</w>
जू न,</w>
आदि ।</w>
आ शा
TR AN
सिर् फ़</w>
सिं हा
संवेद नशील</w>
लिख ें</w>
मिले गी।</w>
फ् त</w>
दे नेवाला</w>
गो ष्ठ
मो टे</w>
मिल ना</w>
प्रोटो कॉल</w>
नज़ दीक</w>
ट र,</w>
जाए गी,</w>
ज )</w>
ख़ि ला
उम्मी द
b u
विकास शील</w>
वर् मा</w>
मोमि नों</w>
प्र दत्त</w>
टी )</w>
खे त</w>
खतर नाक</w>
क वियों</w>
हटा एँ</w>
सोसाइ टी</w>
श् ले
लं ब
आ वि
अन् वे
अ सम
f i
O F</w>
बो ले</w>
प्र वृत्त</w>
पो त</w>
पॉ लि
ज्ञ ों</w>
गु रू</w>
सं योजन</w>
वाह क</w>
पै नल</w>
गी ता</w>
कॉ पी</w>
अभि लाभ</w>
3 9
हो ता,</w>
म हो
बाद )</w>
इ ष्ट
विस् फो
पहुँच ने</w>
थ ,</w>
एजें सियों</w>
200 9</w>
लाइब्रे री</w>
म् प
गा )</w>
3 6
हा ई</w>
सा मं
श ह
फौ रन</w>
जाय ेगा</w>
घ ृ
आन न्द
आ शु
3 2</w>
( C)</w>
हर ित</w>
स्थ लों</w>
स् ने
सृ जित</w>
सां ख्य
समझ ना</w>
शाखा ओं</w>
उ ज्
सब का</w>
रि कॉर्ड</w>
भार ती</w>
पू छा
नस् ल</w>
कि .</w>
transla t
@info :</w>
( बे
है सियत</w>
सफ ाई</w>
संगण क</w>
ला ती</w>
प्रा णी</w>
ष् कार</w>
रा सायनिक</w>
पाठ क</w>
पा ता</w>
निष े
नि मि
त ख्
ज़ि क्र</w>
OR S</w>
.201 6</w>
ही त</w>
विश् वास
रो ज़े</w>
म ण्
बाद ल</w>
कृ ति
इमार त</w>
TRAN SL
TRANSL AT
TRANSLAT ORS</w>
िया ई</w>
छि पा</w>
घा टा</w>
5 .</w>
( अच्छ
लगा कर</w>
प्रॉ क्सी</w>
नवं बर</w>
ख जू
हो ना।</w>
सुन् दर</w>
सहा नु
सं दत्त</w>
श नों</w>
र ें
झ ा</w>
ख् वाह
कार िता</w>
करने वाली</w>
200 3</w>
18 9
ेंग े.</w>
स्कू लों</w>
सी ता</w>
श ्या
रख नेवालों</w>
प्र देश,</w>
ना मों</w>
धार ा
त्य ो
घा ट</w>
गो ल
खु ल्ल
का ँ
ऑ फ
इ क्
आ एगा</w>
स्वी कार्य</w>
स्वच्छ ता</w>
सा ले
सर्व था</w>
बं दर
तथा पि,</w>
कति पय</w>
इला कों</w>
इ ताअत</w>
समझ ी</w>
विशेष ा
विद्य ा</w>
मौजि ज़े</w>
मा लि
ब गैर</w>
ढे र</w>
टै ग</w>
गुना ह
u l
(य े)</w>
फ़ त</w>
का श्
- से-
लं बित</w>
भू ख</w>
प्राधि कार</w>
द्र व</w>
आद त</w>
आ भू
v e</w>
8 -
ू त</w>
सम् बद्ध</w>
रू स</w>
र ें</w>
भर ता</w>
प्र भु</w>
पी एस</w>
पह र</w>
ध ता</w>
त्वर ित</w>
तिहा ई</w>
डो मेन</w>
करा ई</w>
उपलब् धियों</w>
उप न्या
ल ें,</w>
फ़ा य
ग लती</w>
उपे क्षा</w>
अप ि
ं जलि</w>
स्ट्र िंग</w>
म री
ब्राह् मण</w>
7 .
सोच ते</w>
लग ने</w>
दे ना।</w>
ज़रू रत</w>
आकर् षण</w>
(optional )</w>
पड़ ते</w>
गे ट</w>
कर तू
एँ ,</w>
à¥ 
सह न</w>
द य
जु टा
चो री</w>
गा ?</w>
अव ज्ञा
हम में</w>
वस्तु एं</w>
व जन</w>
यो ं,</w>
पशु ओं</w>
डी पी
ज्या दातर</w>
कु र
उ तर</w>
अंग्रे ज़ी</w>
a tion
हु ई.</w>
सूर ज</w>
ल ेंगे।</w>
मे गा
कवि ताओं</w>
आंक ड़े</w>
à¤ </w>
सक े.</w>
शर् तें</w>
फ्रा ंस</w>
निवार ण</w>
ख़ै र</w>
( उसके</w>
सुं दर
स वा</w>
शि ला
व्यव हार
फाय दे</w>
ना ;</w>
झ ील</w>
ज़िम् मे</w>
आ मद
M L</w>
स्त ों</w>
व्याख्या न</w>
मुख ्या
भु त</w>
बांग् लादेश</w>
न ब
तौ रे
ड्राइ व</w>
गा ने</w>
करे गा.</w>
a r</w>
सि न्
मा य
मद्रा स</w>
बै क</w>
बढ़ ता</w>
प्र बल</w>
पथभ्र ष्ट</w>
ध ,</w>
थ ्
उप करण
उ जा
आँ खें</w>
– इस</w>
ॉ ँ</w>
मुश रे
भ ्रा
बे कार</w>
फो र्
नो डल</w>
ने अम
दे ं,</w>
चि त्रों</w>
ई यों</w>
(म गर)</w>
( मु
( ग़रज़</w>
शो षण</w>
व्य र्थ</w>
रूप ये</w>
मुद्र ा
नि को
देखो गे</w>
दी वारों</w>
दिखा ना</w>
तु झ
जी न</w>
ऊ तक</w>
अव स्था
à¥ à¤
- सा</w>
सुर क्षा
व्युत् पन्न</w>
मि ली
मज दू
फू लों</w>
परिष द्</w>
क्ष ै
इलेक्ट्रॉ निक</w>
अं ड
अ स्वीकार</w>
, –</w>
स्ट िक</w>
सं जाल</w>
वृत् ता
प्र दाय</w>
परि श्रम</w>
नियो जन</w>
ड ें
गी तों</w>
की ट
उत्पाद कता</w>
m )</w>
हु ई,</w>
स्वा धी
सेवा नि
वित् त
वर न्</w>
माइ श</w>
म क़
बच पन</w>
पहुंचा ने</w>
पह न
ता /
णा त्मक</w>
{0 }
ियु क्त</w>
हौ ल</w>
सुले मान</w>
वांछ ित</w>
लम् बे</w>
रिज़ र्व</w>
र क
का ज</w>
क़् ति</w>
इला हा
आकर् षक</w>
अग स्त,</w>
ों -
सं कल्प
स ार्थ
शो धन</w>
वस्तु तः</w>
बं बई</w>
प्रा ं
ड ्रो
च ढ़</w>
d )</w>
ह की
शुरू आत</w>
म ण
प्र दायिक</w>
टा ल</w>
ज्या दती</w>
जी -
ज़ न</w>
ख़ रा
ऑ फ़</w>
http:/ /</w>
a )</w>
( किसी</w>
नु क़
निप टान</w>
दार्श निक</w>
त मिल</w>
कि र
आ दर</w>
अनु कम्
शि ष्ट
निवे दन</w>
जंग ली</w>
ज ता
गौर व</w>
गो रा</w>
कहा नियों</w>
कर् तव्य
अव धारणा</w>
 à¤
बर् फ</w>
नाब ार्ड</w>
था -
ग् स</w>
खु ल्ला</w>
का लेज</w>
का न
्र ता</w>
म्ब ई</w>
बो लने</w>
फिर ते</w>
पु ल</w>
( उनकी</w>
है ः%</w>
मुका बले</w>
मर म्मत</w>
बार ि
बल्ले बाज</w>
ठहरा या</w>
क् की</w>
एकत्र ित</w>
इ ज्
E }</w>
से स</w>
सामान्य तया</w>
सर्व श्रेष्ठ</w>
वि द्व
ल क्षित</w>
प्रतियो गिता</w>
धन राशि</w>
तो ष
टै गोर</w>
च्छ ा</w>
कैं सर</w>
ए प्
उड़ी सा</w>
à¥ 
10 0
सूक्ष् म
स जा
रा धा
मक् का)</w>
फ्रा ं
प्र दा
कृत ज्ञ</w>
का फिर</w>
एक्स चेंज</w>
उप र्
आ धे</w>
विशि ष्ट
या क़
मा उस</w>
बेह श्त</w>
फि ट
प दा
गो पन</w>
आखि र</w>
हुकू मत</w>
लौ टने</w>
झ े
कृ पा</w>
अप्र त्या
y p
े गें</w>
राष्ट्र ी</w>
मे ल
म ियम</w>
फर वरी,</w>
प्रा ंत</w>
जु ला
उदाहर ण
( .</w>
प्रदर् शक</w>
ऊ ंची</w>
" हमारे</w>
सी ख</w>
मे ह</w>
बे ल</w>
फो टो
न स</w>
कह े</w>
उत ारी</w>
सारा ंश</w>
शक्त ियां</w>
मिटा ना</w>
पाँ व</w>
ना ते</w>
दुः ख</w>
गण ि
इंजीनिय री</w>
सुना ई</w>
सा त
फें क</w>
प्रति लिपि</w>
पार् श्
पढ़ ाई</w>
पंचा य
ध्र ु
जु ट</w>
जा ता।</w>
चित्र ित</w>
घे र</w>
क्रांति कारी</w>
क् लि
कह ेगा,</w>
अधि वेशन</w>
H )</w>
िय े।</w>
मेह नत</w>
बैक अप</w>
निमि त्त</w>
निप टने</w>
च लना</w>
उ दार
आमद नी</w>
4 0
सश स्त्र</w>
सचि वा
बहुत- सी</w>
दा नी</w>
ग द्य</w>
200 4</w>
18 5
सार्व भौ
सम कालीन</w>
मह त्व
भो ग</w>
ने त्र
ह वा
शा दी</w>
बु ला
क़ ्य
ी ं।</w>
सा कार</w>
लोग ों
र ी,</w>
र क्षक</w>
मि त्रता</w>
धु ं
तत् कालीन</w>
ग ण</w>
(घ )</w>
वैय क्तिक</w>
याचि का</w>
नक दी</w>
ग ित</w>
खरीद ने</w>
केडी ई</w>
सि ए
स ्र
वा क़
रह )</w>
बु ल</w>
पूर्वो त्तर</w>
परि स्थिति</w>
निवे शकों</w>
दौ रा</w>
ग रि
ए व</w>
आधु नि
ही ं)</w>
श्रे ष्ठ
ले न</w>
मौ ज़ू
ना हक़</w>
तर् क
( आई
हँ सी</w>
प्रति बंध</w>
परहेज़ गारी</w>
ट अप</w>
छि पाते</w>
ग ार्
इस् पात</w>
( तुम्हारे</w>
( R)</w>
प्रा य</w>
दा ँ
उ ग्र
सृ ष्टि</w>
व श्य
री -
रा ष्‍
र सी
प्र चालन</w>
पा उ
छि पी</w>
च ट
इंड िया
आज्ञा कारी</w>
अग्र े
2 ,</w>
हम ले</w>
स दा
मिले गा</w>
मा हौल</w>
परे शान</w>
चा ं
क् लो
ऊँ चाई</w>
gn om
( A)</w>
या द
बना या,</w>
सं वैधानिक</w>
मा मू
ब छ
दा ंत</w>
तर ा</w>
गो रि
ख िक</w>
व्य ष्टि</w>
व नस्
रू परेखा</w>
बृ ह
पेट्रो लियम</w>
निरा श</w>
त ारों</w>
घा स</w>
अ द
व्यक्ति ,</w>
रह कर</w>
ग -
आजा द</w>
अह ं
1 ,</w>
( S
ार् म</w>
सी डी
सा मु
सं ब
श य
मुद्र ित</w>
मि ता</w>
त्रुटि ः%</w>
खो जने</w>
कु शा
उत् सु
आ वरण</w>
अन् दा
ह ्य
स् त्रों</w>
ष्ट ा</w>
म्भ िक</w>
पश्चा त्
दीर्घ कालिक</w>
दिखा ते</w>
ती ं</w>
क लित</w>
( कुछ</w>
होंग ी।</w>
सौं पा</w>
बन् धन</w>
ख़ री
अफगा निस्तान</w>
अकाद मी</w>
सामाजि क-
विधा न-
व कों</w>
ल ु</w>
रख रखाव</w>
चाह ू
ऊ ंचे</w>
सें टर</w>
सिल सि
सर कार,</w>
म् बर,</w>
मे ज
मं ड</w>
डा ली</w>
ए यर
ंग िक</w>
सं ग्राम</w>
या त्रियों</w>
मत भेद</w>
ब लि
पूर्ण तया</w>
नुक़ सान</w>
ते ।"</w>
खो लकर</w>
आनु वं
अप्रत्या शित</w>
अ द्
( अल्लाह</w>
( 0
रा -
र ना</w>
म् ब</w>
फिलीस्ती नी</w>
पै रों</w>
था ?</w>
गण तंत्र</w>
ग ढ़
को ने</w>
अ ब,</w>
6 .
है। -</w>
से क
सरी ही</w>
ल ीन</w>
रु जू</w>
भु ला</w>
परहेज़ गारों</w>
ध ीय</w>
ता नी</w>
ख ण्ड
की र्ण</w>
इब रत</w>
अपना ई</w>
C O
7 -
( तुम</w>
सूची बद्ध</w>
संर क्षित</w>
व क्ता</w>
मे डि
ब चे</w>
पा बन्दी</w>
ट ता</w>
आ एँ</w>
ही ।</w>
र ियल</w>
मेहर बानी</w>
मेमो री</w>
मा स्ट
म ी,</w>
पी ड़ा</w>
ज ना
( एस
राजा ओं</w>
रा ज़
भ य
बना ती</w>
प ढ
दी क़</w>
छा ँ
गरी बों</w>
अन् जाम</w>
अ समर्थ
y )</w>
th is</w>
स् या
वनस् पति</w>
रा य
बा ग</w>
क्रा मक</w>
क़ि स्
उ धर</w>
आं खों</w>
अक्टू बर</w>
स्थाप क</w>
मना या</w>
मण् डल</w>
बर स</w>
ख् वा
क्रो ध</w>
(i v)</w>
सि न</w>
सं वर्
शा लाओं</w>
वि ख्यात</w>
वसी यत</w>
फा इन
परि कल्पना</w>
देखा ।</w>
ज़ा )</w>
ऊँ ची</w>
अव गत</w>
201 1</w>
ह क़
से नाओं</w>
मु है
पो स्ट
परिणा मों</w>
न ली</w>
धार णा
दे नी</w>
ति र</w>
ञ ्
जै विक</w>
चा हो</w>
ऑ स्ट्रे
i m
स्वय ं
विंड ो
वाक़ि फ़</w>
मृत्य ु
बे टी</w>
पु र,</w>
पक् का</w>
दु श
गु णा</w>
क्य ो
को रो
अनु क्रम</w>
ंग् स</w>
e v
प्रिं टर</w>
ती र्थ
कोय ला</w>
केन्द्र ित</w>
स्वाधी नता</w>
ली )</w>
भ टक</w>
फ लों</w>
फ कार</w>
तला क़</w>
जि ंग</w>
गो वि
क बीर</w>
१ ०</w>
िय ों)</w>
सर ी</w>
ल ियन</w>
ल खन
मर् या
बा एं</w>
फ्रे म</w>
फिल् टर</w>
प्रेर क</w>
पर क</w>
पक्ष ियों</w>
ता नों</w>
घे रे</w>
करें ?</w>
आज कल</w>
I D</w>
8 8
हु ये</w>
सब् ज
व ग़ै
रद् दी</w>
भूत पूर्व</w>
फिर )</w>
प्र कार
निश् चि
नियो जित</w>
डी एफ</w>
ज -
कि ला</w>
सुन वाई</w>
व गै
मह फू
भड़ कती</w>
ब लों</w>
ब डा</w>
प्रवा हित</w>
पा ओगे</w>
जै से-
ंत /
E R
होंग ी</w>
स टी
शो ध
ब्राउ ज़र</w>
परम् परा
देख ेंगे</w>
ण ।</w>
ग ़</w>
क ।</w>
इ त्
( का
ह ज़ार</w>
स्त्र ो
संदर् भ
ष्टा चार</w>
लो प</w>
याक़ ूब</w>
मुशरे कीन</w>
पा ये</w>
ना फ़र
ड़ ी
जाएँ गें</w>
घो ष</w>
क़ब् ल</w>
कच्च े</w>
एह काम</w>
उप रा
ंड ी
स्वी कार
विध ियों</w>
विचार धारा</w>
बेह द</w>
दी )</w>
ट म</w>
अध्य य
at e</w>
ह फ्
सं कु
विफल ः%</w>
वा सन</w>
मोह लत</w>
मो ड़</w>
पहुँ ची</w>
दुर् भाग्य
तरह ,</w>
ड़ े
ह ज</w>
श्वे त</w>
मरा ठी</w>
प् स</w>
नी ला
ती .</w>
ठहरा ते</w>
च लित</w>
आप दा</w>
आज़ माइश</w>
e l</w>
199 2</w>
स्वा द</w>
सिद्धा न्त</w>
शर् ते</w>
वर्गी करण</w>
धम की</w>
दा ऊ
क्षै तिज</w>
आश्च र्य
आधि कारिक</w>
s tr
( 5)</w>
शे यर
शा ह
वैष्ण व</w>
रू पित</w>
नीति गत</w>
टर् स</w>
छ ः</w>
च क्कर</w>
क् टे
के ।</w>
उठ े</w>
अ संभव</w>
194 8</w>
वी .</w>
रंग मंच</w>
ब ट
नी ंव</w>
निय म,</w>
ऊ ंचा</w>
अंतर ित</w>
ं श
स् प</w>
श्रद्धा ंजलि</w>
लड़ ने</w>
मे ज</w>
प्राप्त कर्ता</w>
त्र ि</w>
तु ओं</w>
तर ल</w>
ट ्</w>
ख ,</w>
सर त</w>
सं कल्पना</w>
या नि</w>
भ ली</w>
परहेज़ गार</w>
नी त</w>
खास कर</w>
हार् ड
स् पी
समा वेश</w>
समर्थ क</w>
शिक्षा ,</w>
वि टी</w>
वार् ता</w>
फ़ े
प्र मुख
धो खे</w>
द वा
त व
जा नों</w>
गु स्
आ स्था</w>
an d</w>
( vi
सुन कर</w>
साझी दार</w>
ब -
निया मक</w>
थ ल</w>
त्म कता</w>
छोड़ ने</w>
चिन् ह</w>
घो ड़े</w>
गवर् न
करे गी</w>
ए ण्ड</w>
इलाहा बाद</w>
o c
स जा</w>
शब् दा
मा प</w>
भ ट्
ब तौर</w>
नो ड</w>
किता बों</w>
अन िय
( जब</w>
सौ भाग्य</w>
सं कलन</w>
सं .</w>
वि टा
बेच ने</w>
बा लक</w>
पो स्ट</w>
दा दाओं</w>
तरी क़े</w>
कार गर</w>
का व</w>
विज्ञा पन</w>
प्रा ण
पुरा ण</w>
पाद प</w>
नाट कों</w>
ज़बरद स्त</w>
ख् तियार</w>
आक स्
ti t
” ।</w>
रो धी</w>
रजि स्टर</w>
मौ सम
म ले
प्रशा ंत/
न द
द रा</w>
उत्तर दायित्व</w>
ई ंट</w>
à¤¸ à¥à¤
सवा ब</w>
श न,</w>
लग ी।</w>
पढ़ ी</w>
कर ते।</w>
उन्न यन</w>
इच्छ ुक</w>
आ वास
g r
(अज़ा ब)</w>
हा ं,</w>
ल नों</w>
मज दूरी</w>
जाओ ,</w>
जाएँ गे,</w>
ख़ बरदार</w>
इन् द्र
ं तर
ला ए
महा मारी</w>
ब िक</w>
पर्यावर णीय</w>
डा लर</w>
डा टाबेस</w>
कि ट</w>
आग मन</w>
अपरा धियों</w>
सु चरि
रूप ,</w>
मुहै या</w>
ड ू</w>
झ ी
गा ना</w>
अधि ष्ठा
, %</w>
( D)</w>
ला ह
मा ंस
महा द्वीप</w>
म ो</w>
प राज
न मक</w>
ज ॉ
ग ए.</w>
कॉन्फ़ि गर</w>
à¤ ¡
à¤ 
la tion</w>
e m</w>
( गो
वश्य क</w>
योग ्य
मो टर</w>
मै त्री
मै ं,</w>
म ख़
प्रति ज्ञा</w>
प्र चु
निर् भरता</w>
निर् णा
गि र्द</w>
के स</w>
कु म</w>
इंजीनिय रिंग</w>
अपि तु</w>
अ मृ
an .</w>
. %</w>
ह म्
स् मार्
सा धार
ल् ले</w>
पर्यट कों</w>
ने ताजी</w>
कै श</w>
शि ला</w>
मान स</w>
प्रे षक</w>
नु मा</w>
नी ंद</w>
डा इ
टुक ड़ा</w>
ज ंग</w>
चु कता</w>
कु टु
एम ई</w>
अन ो
अक्तू बर</w>
अक्तू बर,</w>
vi r
समा योजन</w>
व त्</w>
लोग ,</w>
फ त</w>
दिखा ए</w>
दा बाद</w>
था म</w>
ढ़ ियों</w>
घ बरा
V )</w>
स् को</w>
से वक</w>
शि प</w>
विभाग ,</w>
माण िक</w>
परि चालन</w>
नवी नतम</w>
दो षी</w>
जा हिर</w>
ख़ु श</w>
केन्द्र ों</w>
कट् टर
उपर् युक्त</w>
इच्छ ा
आ क्
d .</w>
( उन</w>
सं चार
ला ं
र क्षण</w>
बू झ</w>
दूर संचार</w>
ज वान</w>
चे हरा</w>
चुन ें.</w>
कार्य पालिका</w>
क़ा त</w>
i a.</w>
a y
य ार
प्रति बद्ध</w>
परियोज नाएं</w>
तन् त्र</w>
घर वालों</w>
ग ्यार
अपने- अपने</w>
( v)</w>
सुचरि ता</w>
सं तोष</w>
वा ल्
वर् क</w>
ना ई</w>
नमू ने</w>
था ई</w>
त /
चाँ द</w>
घ ा</w>
घ न
गवर् नर</w>
क़्य ों
ए म्
इस हा
अव काश</w>
अच्छ ा,</w>
अ ज़ी
हो श</w>
ह ू</w>
सामु दायिक</w>
स ता
ब रा</w>
पा यों</w>
ती )</w>
टे निस</w>
जु न</w>
छ ू</w>
ग म्
क ता
एस )</w>
उत्तरा धिकारी</w>
आ ठ
अव संरचना</w>
अ द्वितीय</w>
ंग ी
सर दारों</w>
वरी यता</w>
मा फ़</w>
बी वियों</w>
प्रति वर्ष</w>
दु कान</w>
दरख् त</w>
द शा
ते लु
ज य</w>
ग रों</w>
कु दरत</w>
st el
re c
( हम
सं चि
शि र्क</w>
बद लना</w>
जो र
कृ ष्ट</w>
ए ख्तेयार</w>
इसहा क़</w>
अ ज्र</w>
in g
( मगर</w>
( ख़ा
सं त
विश् वा
राष्‍ ट्र
रह स्य</w>
बा तिल</w>
प्रतिनि धियों</w>
नियंत्र क</w>
टॉ गल</w>
इरा क</w>
आँ कड़ा</w>
) ;</w>
ूं गा।</w>
सहानु भूति</w>
समस्या एं</w>
संके तक</w>
शान् ति</w>
मार ने</w>
म द्
बद ौ
नहीं ?</w>
क् लिप
को टा</w>
la b
स्ना तक</w>
स्थ गित</w>
सड़ कों</w>
सक ीय</w>
संतु लित</w>
विज्ञा न,</w>
वक्त व्य</w>
लड़ कियों</w>
रो चक</w>
फू ट</w>
पा कर</w>
नि देश</w>
तं त्रि
ग्र ु
गे )</w>
खो जें</w>
उत् सर्जन</w>
k e
' ,</w>
ार् इ</w>
हार ून</w>
संस्था गत</w>
संघ ीय</w>
ल ची
भे जा
ब सव</w>
दिसं बर,</w>
छ त्
कर् ण
E N
00 0
। -</w>
ह ारों</w>
सं तान</w>
सं काय</w>
विधा य
रे गि
बा ढ़</w>
तना व</w>
आग रा</w>
h a
श पथ</w>
वा म
वा क्य</w>
र ते</w>
म ्यू
फी स</w>
दर्शा या</w>
ड़ ता</w>
अंग ों</w>
201 0</w>
20 19
( न
हूँ .</w>
सिंहा सन</w>
समे कित</w>
सफ र</w>
स ता</w>
रंग ों</w>
महा सागर</w>
पू ँ
निशा न</w>
दि ला
टी वी</w>
टि कल</w>
च तु
स्थि रता</w>
स् फी
सि ने
रहे गी</w>
प्रको प</w>
डा क्टर</w>
ग म
अव स्थित</w>
_ 0
T P</w>
3 00</w>
वा ँ</w>
र ने</w>
ब ग</w>
दा द</w>
कि ं
सु भाष
राज्य पा
बर बाद</w>
पड़ो सी</w>
निर्णा यक</w>
च )</w>
करण ीय</w>
ई- मेल</w>
आत्म निर्भर</w>
आ गामी</w>
( G
स ्</w>
स ना
ट ली</w>
चाह ेंगे?</w>
किन ारा</w>
उपभो ग</w>
stel lation</w>
Con stellation</w>
3 ,
म सी
प्र देशों</w>
नु मान</w>
नि की</w>
जि स्ट्रे
ज़्या दती</w>
कीट ना
D A
हैं -</w>
सौं प</w>
मुकद मे</w>
ब गल</w>
फ़ ार
निर्मा ताओं</w>
अर वि
अफ सोस</w>
अधी न
( उसकी</w>
१९ ८
सोच ने</w>
प्रस्ता वों</w>
प् पा</w>
पुरू ष</w>
त्या ग
डब् ल्यू
जाए गी
ओ पन</w>
आ धी</w>
.201 3</w>
ह ब</w>
सुधार ने</w>
ष् कृत</w>
विस्तार ित</w>
र िय
मैत्री पूर्ण</w>
मिले गा।</w>
ब्रह् म
निर्वा चित</w>
ना नक</w>
कुफ् फार</w>
क़या मत)</w>
औष धि</w>
आका श
अग् नि</w>
à¥ à¤
सित म्बर</w>
शे ख</w>
व्र त</w>
ल्य ू</w>
बढ़ ो
ने स</w>
देखा ,</w>
चिं तन</w>
गुला म</w>
कला म</w>
ओ बा
इ समे</w>
अत एव</w>
सो साय
वर्ष गांठ</w>
वं श
ल पे
यहू दियों</w>
नं .</w>
त् ता
त गा
क्षम ताओं</w>
अय ्य
g u
6 .</w>
3 6</w>
/ %</w>
सौं दर्य</w>
जा य</w>
ज़िम्मे दारी</w>
छो र</w>
अल् प</w>
अ शोक</w>
à¤ª à¥à¤°
हरे क</w>
व ारी</w>
ला यक</w>
रे )</w>
मल या
त म्
त नत</w>
डा लें</w>
डा लना</w>
छोड़ ें</w>
चा ह</w>
हस्ता ंतरण</w>
सक ेंगे</w>
सं क्षेप</w>
रु ए</w>
प्ले ट</w>
प्रा इ
पूज ते</w>
ता ज
कि स-
का न्
क़्यों कि</w>
s e</w>
. -
हो -
हू ं
सु दूर</w>
सन् देश</w>
सचिवा लय</w>
वृ ति</w>
मु फ्त</w>
मक् का</w>
भु ज</w>
बच्च न</w>
प्रा णियों</w>
गं ध</w>
क्लिप बोर्ड</w>
ऑ ंख
à¤ 
A R</w>
पा यी</w>
णु ओं</w>
कर्म ियों</w>
आ कार
col or</w>
हो !</w>
ह ्रा
साक्ष रता</w>
रो ज़
फ ट</w>
निक लते</w>
ता लिका</w>
जि ए।</w>
चू क</w>
किस- किस</w>
एल् गोरि
’ ’</w>
ि ए</w>
हा न</w>
सिफ़ारि श</w>
सार्थ क</w>
वा ने</w>
लौ टकर</w>
ला पन</w>
यू ं</w>
परेशा नी</w>
प टेल</w>
निय न्त्र
दिसम् बर</w>
दश मल
ड ऋ
जोड़ ना</w>
ज ॉन</w>
चर णों</w>
किरा ये
ओ गे?</w>
इत्या दि
अप मान</w>
अ ब
à¤ 
s a
साम ग्र
वि श्रा
ल क
रा क</w>
मे न्यू</w>
मा फ</w>
ब्रह् म</w>
प्र क्षे
न् दा</w>
डि ब्
जि समे</w>
को ड
इस्लाम वादी</w>
अप वाद</w>
" "
स्थाना ंतरित</w>
सं गोष्ठ
वे ल</w>
न्यू य
दि न
ढ े</w>
गा हों</w>
htm l</w>
हु ए)</w>
रि सा
महा न्</w>
बद ल
परम् परा</w>
दो पहर</w>
जिं दगी</w>
उप हार</w>
1 "</w>
ार् क</w>
स्वै च्छिक</w>
लं ब</w>
रो शनी</w>
मज दूर</w>
ता ज़ा</w>
डॉ क्टर</w>
जर् मन</w>
ज मे</w>
क्‍ त</w>
आ नं
अव रो
w ar
( ई
१ ०
स को
रो ज</w>
यौ न</w>
मू लन</w>
मु ख़
बदौ लत</w>
फरिश् तों</w>
पु रा</w>
नव म्बर</w>
झुठ लाते</w>
जाइ श</w>
कि सने</w>
P O
संस् कृ
राज कुमार</w>
यथ ार्थ</w>
प्र जातियों</w>
प ्य</w>
प तन</w>
निर्देश ित</w>
ना ते
दरवा जे</w>
ज् जु
जन जातीय</w>
गर् दन</w>
खो ला</w>
का लि
अनुभ वों</w>
( मा
( भी</w>
( अब</w>
सं क्रिया</w>
व् ‍य
रेश म</w>
रख ो,</w>
य ीं</w>
भ व्य</w>
बिल ियन</w>
फ् लो
प्रति मा</w>
निर न्तर</w>
न- भिन्न</w>
ख़ ्या</w>
इस लिये</w>
ंग ु
à¤° à¥à¤
हथ िय
सर्वि स</w>
व्या स</w>
विनिय मन</w>
वि गत</w>
म स</w>
प्र गा
पो षक</w>
पुष् प</w>
नो टिस</w>
नवा चार</w>
धर् मों</w>
टिप् पण
जाए .</w>
जा पानी</w>
च ारा</w>
गु रू
ऊ ँ</w>
अँ धे
HT ML</w>
- पट्टी</w>
०० ०</w>
साक्षा त्कार</w>
रा त्रि</w>
मानव -
न कल</w>
दरवा ज़े</w>
घ टा</w>
गम् भी
अन न्त</w>
ॉ ल</w>
मि श्
फै सले</w>
पा ओ</w>
नो म</w>
नि देशा
द मन</w>
त ह</w>
डे टाबेस</w>
ट ियां</w>
चि ल्
कर ।</w>
कमी शन</w>
( या</w>
( इस
े शन</w>
सद नों</w>
ले कि
रू ह</w>
यु ग्
मुख्या लय</w>
प्रो टीन</w>
प्रयोग शाला</w>
नि क्स</w>
जाओ ।</w>
0 8
वार्ष िकी</w>
रखा ।</w>
मै त्री</w>
नरे न्द्र</w>
घ ्
ओबा मा</w>
ए टी
इन को</w>
4 8</w>
( T)</w>
( F)</w>
हा ली</w>
ष ण
रि वा
पे य</w>
न शीलता</w>
अवज्ञा कारी</w>
श्री लंका</w>
मनो रंजन</w>
बे टियाँ</w>
बना या।</w>
फ़ो न</w>
न्याय पालिका</w>
द्र ु
थे ।"</w>
खू ब
अनु मानित</w>
अतिरि क्त,</w>
हा थ
साम्रा ज्य
समाज वादी</w>
समझ ो</w>
बहु देव
प्र वास</w>
पीछ ला</w>
प ्य
था ;</w>
ढ ी
क व
इं कार</w>
अ लि
संख ्यक</w>
वि न</w>
रूपां तरण</w>
मि लन</w>
बारि श</w>
फि स</w>
फ़ ॉर्
ति ब्
छि पे</w>
क् टरी</w>
उद् भूत</w>
o d
( का</w>
सभा ओं</w>
श्र द्धा</w>
मै च</w>
म ज़े</w>
बा ज़ार</w>
पं थ</w>
दाऊ द</w>
दशमल व</w>
ठ हरे</w>
ट स</w>
छो टी-
छ पाई</w>
खुल्ल म</w>
खी ंच</w>
कार्य काल</w>
क श</w>
आ चार्य</w>
I I</w>
.. ..</w>
ेंग ें</w>
सां स</w>
संस् ‍
वा ट</w>
रू चि</w>
राज पत्र</w>
बि ग
पेशे वर</w>
पि स</w>
निर्माण ,</w>
( ना
संगी त
शिकाय तों</w>
ल यन</w>
बन ते</w>
प्रभु त्व</w>
पी सी
प िक</w>
धी मी</w>
ता ं
त मन्
त को
ज ता</w>
गो ली</w>
उपा धि</w>
अफ़ सोस</w>
हाला त</w>
स्टा फ</w>
सज दे</w>
वी र
वर्गी कृत</w>
ले गा।</w>
मो चन</w>
भी ड़</w>
प्रति रोध</w>
पुर् तगा
जे हाद</w>
उप ग्रह</w>
आश् वासन</w>
( हमारी</w>
( दो
श्र ु
शा सकों</w>
वा त</w>
व न्य</w>
मामू ली</w>
बा धा
बा एँ</w>
ठी क-
च खो</w>
गा ।"</w>
खुश ख़बरी</w>
क्ष णों</w>
कर म)</w>
कब् जा</w>
ए जे
उपभो क्ताओं</w>
l am
18 7
( क़यामत)</w>
वर्ग ीय</w>
ना ना</w>
नर म</w>
दे )</w>
दाय रे</w>
ड ियम</w>
क्या ?</w>
इन् होंने</w>
िय ता</w>
समू ह
सका ।</w>
वि नो
वास्तु कला</w>
यं त्रों</w>
मान ,</w>
बढ़ा या</w>
प्र श
परि स्थि
किरा या</w>
कम ल</w>
.0 9
स्व ी</w>
सर् च</w>
श ल्य
मा पद
बर् ट</w>
पड़ े।</w>
पक ड़े</w>
निर् वाह</w>
दु खी</w>
ता छ</w>
अजी ब</w>
v a
7 .</w>
सि द्धि</w>
स ें</w>
म ई,</w>
बी वी</w>
पर्य टक</w>
पत् नियों</w>
जाए ंगे</w>
किलो ग्राम</w>
किन ारों</w>
कमे टी</w>
उठा कर</w>
इं जन</w>
इ श
अधिका धिक</w>
R O
स्वि च</w>
स्टा क</w>
सु नी</w>
व ता</w>
मज़ दूरी</w>
भो ज</w>
बर कत</w>
फि रे</w>
प्रतियो गि
प्रतिभू तियों</w>
पा ती</w>
परि ण
धो खा</w>
देख ो,</w>
ती -
लौ टना</w>
ले स</w>
रह स्य
मुख ्
नि मंत्र
ट ेंट</w>
ए गा।</w>
अवय व</w>
( क्या</w>
सहे जने</w>
समा वेशी</w>
सक ते,</w>
लॉ न्
मुद्र ण</w>
महामहि म,</w>
म य
पं क्ति
न ;</w>
जिन पर</w>
कि लो</w>
आकस् मिक</w>
आंक ड़ों</w>
ं सी</w>
oo g
A n
सूच का
म् प</w>
मजबू ती</w>
बना ओ</w>
ब ें
पं द्र
त क़
छोटे -
ग्रि ड</w>
ख पत</w>
क् तों</w>
किया )</w>
अब्दु ल</w>
स वाई</w>
स ः</w>
ष कों</w>
म् मद
भू टान</w>
पट् टे</w>
प ो</w>
नौ का</w>
दायि त्वों</w>
द री</w>
जग न्
चे न्
चा लक</w>
गो वा</w>
की जिए</w>
उद् ध
u s</w>
ु ता</w>
स् कर</w>
सम ीकरण</w>
सक ता
सं चरण</w>
वे ग</w>
व ारा
लि टी</w>
राज मार्ग</w>
मौ खिक</w>
भ्र ष्टाचार</w>
बता ना</w>
बढ़ा ना</w>
पैदा वार</w>
ध रो
ध न-
ज़ ू</w>
ज़ लील</w>
घा तक</w>
कु मारी</w>
कठिना इयों</w>
अ सी
लो हे</w>
लाभा ंश</w>
लखन ऊ</w>
रू ए</w>
भ गत</w>
बी बी</w>
निक लता</w>
ठा कुर</w>
औ ज़ार</w>
p l
e w</w>
साझी दारी</w>
सर ता
मौ के</w>
दिव सीय</w>
डा लो</w>
गें दबा
ख़ु शी</w>
क् ले
लु प्त</w>
मजदू रों</w>
ब्य ौ
प्रि ंट</w>
तट ीय</w>
कह ती</w>
एक- एक</w>
वा ज़े
लॉ जी</w>
रण नीति</w>
रख ो।</w>
मान जनक</w>
बद लते</w>
प्रो से
परा मर्
नै ति
दर् जा</w>
ज ्या</w>
खि ड़
उ भार
आ स्त
( बा
सा दा</w>
श्रे णियों</w>
शे र</w>
वाज़े ए</w>
र् थी</w>
र् ण
मुश रि
मु म
ब्रह् मा
ब ारा
ब जाए</w>
पढ़ कर</w>
ध्य ेय</w>
जुला ई,</w>
जु ड़</w>
गे ।"</w>
को ट</w>
किता बे</w>
उद्देश ्य
आन् दोलन</w>
आज़ा द</w>
अभिन य</w>
अन्तर ्राष्ट्रीय</w>
अनु भूति</w>
1. html</w>
0 9
.201 9</w>
(गो या)</w>
सू जन</w>
ल लि
रा )</w>
महा निदेशक</w>
भार ्
बो ह
प्रौद्योगि कियों</w>
तक )</w>
टे लि
झग ड़ते</w>
घा यल</w>
ग ॉ
हिन्दु ओं</w>
स्‍ तु
स्टा र</w>
विशेष ताओं</w>
ला ई
बा )</w>
ब री
फे फ
पि न</w>
पाठ कों</w>
पा त
डे वल
छु पाएँ</w>
क ड़े</w>
उन् मूलन</w>
इंत जार</w>
अन्या य</w>
.0 8
( E)</w>
सख् ती</w>
ब ँ
प्रति बिं
प्र ख्यात</w>
ध ियां</w>
दे गी</w>
ति रु
चु ंब
ऑपरे शन</w>
) -
‍ त</w>
ो गे</w>
स्‍ त
सर े</w>
सं बं
सं ग्रहण</w>
विशेष ज्ञों</w>
रि मो
रा ई</w>
नि धियों</w>
त् ति
ज ार्
खु ल</w>
आ बाद</w>
10 00</w>
हा ं
स्व देशी</w>
सोच ता</w>
लक्ष ्य
रोग ियों</w>
ब् ला
ब िया</w>
ब शर्ते</w>
पूर्वो क्त</w>
प नों</w>
निस् बत</w>
धा न,</w>
दी -
त प
ड़ा ,</w>
जो ड़ी</w>
क सा
उड़ा न</w>
( C
होगा ?</w>
श्रे य</w>
श ॉर्
रे ,</w>
फ़ि र</w>
नेवा ला,</w>
न फ़
दूँ गा</w>
ं ज</w>
सु पुर्
संशोध न)</w>
ष ण,</w>
वाद ,</w>
लै ण्ड</w>
मा स्टर</w>
फॉ र</w>
प्र गतिशील</w>
निवे श
झग ड़ा</w>
चुप के</w>
ग ली</w>
कोरो ना</w>
कार्य कलापों</w>
अपू र्ण</w>
स्टॉ क</w>
सक ेंगे।</w>
लॉ ग
भेद भाव</w>
दिलच स्प</w>
ड )</w>
जीव ंत</w>
ख्वाहि श</w>
कार्य वाह
का शी</w>
एक्स टें
उन् ह
हिंदु ओं</w>
सर्व प्रथम</w>
विशेषा धिकार</w>
व ीय</w>
लो गे</w>
मु रा
मधु मेह</w>
भेज ना</w>
प्र था
निय म
च लाए</w>
घ मंड</w>
खंड ों</w>
कम र</w>
. ,</w>
स ँ
वार िक</w>
लोक -
ल ज्
रो ं,</w>
मंत्र ी
मं जि
प्रदर् शनी</w>
ने ह
झि ल्ली</w>
जा नेवाले</w>
की मतों</w>
उर्वर क</w>
à¤¾à¤ °
p o</w>
an i
हो स्ट</w>
स तर्
श्र मिकों</w>
यू ना
यु वक</w>
मिल ी।</w>
प्रस्तु ति</w>
प्रत्य क्ष
पैग़ म्
ड़ ें</w>
ड ं
आशु तोष</w>
S er
सो म
सूच नाओं</w>
संभाव नाओं</w>
स ह</w>
विलो पित</w>
लोग ों)</w>
प्रो .</w>
नग रों</w>
तेलु ग
त नाम</w>
जा गर
घ ने</w>
क पड़ा</w>
अग्र सर</w>
à¤ ¨</w>
हे क्टे
हाँ )</w>
स्पष्टीकरण .
से वन</w>
सुन ता,</w>
सी जन</w>
सितं बर,</w>
शि शु
मि र्
ब्र ों</w>
प्रतिस्पर् धा</w>
जी ल</w>
चा प</w>
घ रा
गु म</w>
क्र मिक</w>
ऑ र्
एच .</w>
उन् ‍
आयुर् वेद</w>
आ वृत्ति</w>
अव तार</w>
२ ०
१९ ७
सब की</w>
सज् जित</w>
वे दी</w>
र सो
माँ -
मणि पुर</w>
पे शी</w>
निष् पादित</w>
जा ना।</w>
घू म
ग्रं थों</w>
किता ब)</w>
कर् ण</w>
उद्य मियों</w>
उठ ता</w>
आवास ीय</w>
अनु भाग</w>
3 3</w>
( जैसे</w>
१ ६
स् लाइ
सदस् य
वाक़ि फकार</w>
रु क</w>
यू नियन</w>
मूल्य वान</w>
म ॰</w>
भेज ता</w>
पोर् टल</w>
पं ख</w>
नी तियां</w>
झुठ लाने</w>
जहाँ न</w>
ग् न</w>
क्रमा ंक</w>
अनु स्मृति</w>
l d</w>
b e</w>
ष णों</w>
वेब साइ
व नों</w>
लक्ष णों</w>
भार त,</w>
बा ध्य
पार दर्शी</w>
पर ।</w>
प ें</w>
नाम करण</w>
दृढ़ ता</w>
ता न
ड् डी</w>
झ ट
खा ई</w>
का टने</w>
क कर</w>
ओ ं
* .</w>
सतर् कता</w>
सं वि
बा जारों</w>
नि वासियों</w>
एँ ।</w>
उत् पत्ति</w>
bo x</w>
I M
शि ंग
विटा मिन</w>
वा द्य
म जिस्ट्रे
बी ,</w>
तू फा
ती स
ता बे
एल .</w>
अपील ार्थी</w>
si on
f or</w>
हार्ड वेयर</w>
स्मार् ट</w>
सर स्व
ल् प
भ त्ता</w>
बां ध</w>
परि दृश्य</w>
नती जा</w>
ट्यू ट</w>
कृष्ण न</w>
कंप नियां</w>
एं व</w>
अभि न्न</w>
हड् डी</w>
सुख -
सर् ग</w>
र् इ</w>
मान ु
मं ज़ि
बे च</w>
नी ल</w>
द्व ै
दे ं
त ारे</w>
जन जातियों</w>
चि पका
गु र
क्ष कों</w>
किया ;</w>
किताब ें</w>
काउ ंसिल</w>
कना डा</w>
इच्छ ाओं</w>
आबं टित</w>
अ हिंसा</w>
अ स्थि</w>
ंग े
in c
ह ज़
स्व रुप</w>
श ो</w>
मुर् दों</w>
म सा
बहु -
पुण े</w>
पांड ु
पा वर</w>
दि ता</w>
ता जा</w>
को टि</w>
इल् ज़ाम</w>
‍ न</w>
वृ क्
विधे य
ध न,</w>
ते ज़</w>
त निक</w>
जा ति
च्छे दन</w>
कै मरा</w>
u )</w>
( बु
हल् का</w>
सै न</w>
समु च्च
लें डर</w>
रवि शंकर</w>
म चा
पार दर्शिता</w>
पहु ंचे</w>
दु ष्
चुन ने</w>
कह कर</w>
आत् मा
आ शंका</w>
आ पूर्
à¤¾à¤ à¤
@ tit
विनि धान</w>
वर्ष ो</w>
व टी</w>
रख ें।</w>
मुख्य मंत्री</w>
मिले ।</w>
ब्रै से
परि पत्र</w>
ध नु
दिलच स्प
ट्र िक</w>
झों क</w>
ज बरद
गुजरा ती</w>
गु फा
क्ष य</w>
आ श्रम</w>
हि ल</w>
ह ण</w>
स्रा व</w>
सुल झा
साले ह</w>
सामाजिक- आर्थिक</w>
राज न
मक् खी</w>
भ यं
पूछ ताछ</w>
द स्त
टा ,</w>
जै सा
जाए ं।</w>
गिरो हों</w>
अनु ष्ठा
" जो</w>
२ ०</w>
वृ त</w>
रा ,</w>
यूसु फ़</w>
मॉ ड
द्वी पों</w>
गतिविध ियां</w>
ग वा
कार्य ।</w>
एम एल</w>
एक जुट</w>
उ धार
in do
195 0</w>
सु र</w>
रिमो ट</w>
नि गे
ड़ े-
ड़ )</w>
ड ्य
जाय ें</w>
क् ट्रा
कह लाता</w>
क वर</w>
उन्न ति</w>
अप मानित</w>
अद् भुत</w>
( डी
( उनके</w>
ार ण</w>
ही नता</w>
स्ना न</w>
राइ ट</w>
यो नि</w>
मे नू</w>
पू ल</w>
ज़ू र</w>
च लकर</w>
किरा ए</w>
का ई</w>
ओ एस</w>
अनुया य
अ ज्ञा
ं टन</w>
a h
2 2
( उसी</w>
ा )</w>
हैं ।"</w>
व ल्ल
नर् म
त्रुटि ः</w>
ज ज़ा</w>
गं गा
कमा ंड
क ताओं</w>
उपयो गिता</w>
अति थि</w>
à¤« à¤¼
S h
है- और</w>
लगा ,</w>
ल ियाँ</w>
ल ह
ल स</w>
ल त)</w>
मुता बि
बाद लों</w>
फ़ कार</w>
देंग े,</w>
दर गुज़र</w>
डे वि
ट न
झुठला ओगे?</w>
क्रिया न्वयन</w>
कॉन्फ़ि ग
क़ु दरत</w>
क़सम ों</w>
ऊ ं
vir at
virat lam
ra viratlam
NAM E}</w>
री )</w>
म ज़ा
बता ए</w>
प्र वृत्
नि दान</w>
डे ट</w>
जाय ।</w>
कर् ज</w>
आ गाह</w>
अभि व्यक्त</w>
अप्र िय</w>
हि मन
हानि कारक</w>
सोसाय टी</w>
सं देश,</w>
वी -
वा पिस</w>
ली म</w>
रहा ,</w>
मिटा ने</w>
भ्र ू
ज़रू री</w>
जग हों</w>
ग्लो बल</w>
एन आई
अनु प्रयोगों</w>
स्थ ूल</w>
सद ियों</w>
सक ता,</w>
य ु</w>
मुद् दा</w>
मी )</w>
मर् दों</w>
भ्र म</w>
दौ रे</w>
कामया ब</w>
आ देशों</w>
१ ७
सी एस
सटी क</w>
स ज़ा
व ना</w>
मे र</w>
मिले गी</w>
ब स्त
जन जाति</w>
चुना वों</w>
अहम द</w>
ंड े</w>
ंग ल</w>
P I</w>
A R
हाइ ड्रो
शी दा</w>
श ही
वि शुद्ध</w>
मु र
बर सात</w>
निर् गम</w>
दे री</w>
जो न</w>
गु मान</w>
को डिंग</w>
ऍ ं</w>
उद् धर
इष्ट -
इज् ज़त</w>
आ ति
अत्या चारियों</w>
अग्रे षित</w>
at s
सोच -
साधार ण
सब ूत</w>
विष यक</w>
ल ।</w>
याचि का
मूर् त</w>
बद रू
फ साद</w>
निर्वा च
त् सव</w>
तस दीक़</w>
गि रा</w>
कला ,</w>
आ घात</w>
à¤à¥ </w>
ी कृत</w>
समझा ने</w>
वर्त नी</w>
व सा</w>
भया नक</w>
दा ,</w>
ज माने</w>
चर म</w>
क् सि
उप देश</w>
इंड ो
आवे दक</w>
आ या,</w>
अप ्
अध ू
हि म्मत</w>
से केंड</w>
ष्ट ियों</w>
वार् ताला
लेखा परीक्षा</w>
राज नीति
माँ- बाप</w>
भाग ियों</w>
ब्यू रो</w>
फ़ साद</w>
निका यों</w>
तुल्य का
जन् न
चि प
ग ह
कर्तव्य ों</w>
अस त्य</w>
o b
hi .</w>
g t
सौ दे</w>
सूचका ंक</w>
सा ई
वि जन</w>
रह ें।</w>
बंदर गाह</w>
न् ड</w>
ग्रा फि
कौ न-
करे गें</w>
ऐ ब</w>
ई स्ट</w>
इं द्र
अर् जुन</w>
अनु शासन</w>
( बद
( खु
सं व्यवहार</w>
रू ट</w>
रा तों</w>
म ्या
पह लों</w>
ने त्र</w>
नाट ्य
झग ड़े</w>
ज पे
च् ची
गा ;</w>
कार ी,</w>
ओ डि
ऑ न</w>
उम् मत</w>
आँ ख</w>
अभ ्य
p )</w>
o s
6 0
(c )</w>
स्त्र ियाँ</w>
सु थ
बैठ ने</w>
बीमार ियों</w>
बढ़ ना</w>
फ़ ज़ल</w>
पूर्व -
पि घ
दी जिए</w>
ड िय
जवा ब
गिरा वट</w>
कश् ती</w>
कला कारों</w>
अव लोकन</w>
raviratlam i</w>
o u</w>
ो )</w>
वा दों</w>
ल ड
म ों
छा प</w>
चट् टान</w>
औ जार</w>
इका इ
अपने- आपको</w>
( इसी</w>
सिखा या</w>
संपर् कों</w>
विधान सभा</w>
वि वश</w>
वा लो</w>
लॉ गिन</w>
राज कीय</w>
मा उ
मर यम</w>
पो शीदा</w>
पेश ियों</w>
नी करण</w>
आई ,</w>
6 5</w>
( P)</w>
ड़ ी</w>
ि णी</w>
हो ?"</w>
सा फ
श ॉ
र्ष ि</w>
रा ग</w>
म नों</w>
प्र दाता</w>
पारि श्रमिक</w>
ज्यो ति
ज री</w>
घृ णा</w>
आप रा
3 4</w>
1 '</w>
सो व
सी ने</w>
सिए शन</w>
विक्रे ता</w>
ला इन
य ी
म्मद )</w>
मो ती</w>
मुना फ़ि
बरसा या</w>
फिट कार</w>
फ ते
नाफ़र मानी</w>
धू ल</w>
दिना ंक
थे )</w>
तस् बीह</w>
जग त्</w>
ख्वाह )</w>
खि ल
क ड़ों</w>
उल ट</w>
अपना )</w>
à¤ 
ें ?</w>
सौ हार्
सिक् किम</w>
सल् तनत</w>
समा योजित</w>
शो का
र वाना</w>
मार् गों</w>
बी मा
प्र पत्र</w>
पारि वारिक</w>
ना गा
त नों</w>
जि क</w>
अप शिष्ट</w>
अंग ू
_0 1.html</w>
हैं :-</w>
सीआर ए</w>
सं ख़्या</w>
शर ारत</w>
श र</w>
वा ई
लाह ौर</w>
मु आव
ब ग़ैर</w>
ब काया</w>
प्ले ट
प्रो फ़ाइल</w>
जीवा णु</w>
गाय ब</w>
गर् भ</w>
आनुवं शिक</w>
अप र्या
8 .</w>
( x
हु कुम</w>
हि जरत</w>
हरिया णा</w>
विय तनाम</w>
ल् लत</w>
मुका बला</w>
बाद शाही</w>
परंपरा ओं</w>
न न्
चि र
ख ट
काम काज</w>
ऑंख ें</w>
ई स
इं स्टी
्र ा</w>
भिन् न-भिन्न</w>
प्रे मी</w>
निका लना</w>
नाग री</w>
तु ,</w>
ड ोर</w>
टेक् नो
ट करा
कृ मि</w>
एकी करण</w>
wh ats
es .</w>
सहभा गी</w>
स िया</w>
बढ़ ी</w>
तुर न्त</w>
चा लीस</w>
च मक</w>
कामया बी</w>
ओ र,</w>
ऊँ चा</w>
अभि वृद्धि</w>
अ प्रत्यक्ष</w>
in t
\ \
स्‍ था
स्पर् श</w>
साम ्य
ले शन</w>
लगा ई</w>
य ती
मंत्रा लय,</w>
बना एँ
फौ ज</w>
प्रश् न
पत् तियों</w>
निका ली</w>
दू ँ</w>
खा ड़ी</w>
उ तने</w>
अंग ु
सभ ्य
संभाव नाएं</w>
स प्
बूझ कर</w>
ब ही</w>
फ री
प श्च
द्वार का
करना .</w>
कदा चित</w>
क ष्ट
ओ वर
इ ल
आई पी
विशेष ताएं</w>
लि ं
बह ती</w>
बंगा ली</w>
प्रगा ढ़</w>
पड़ ेगा</w>
निदेशा लय</w>
द्वी प
दो हरा</w>
छत् तीस
घा व</w>
क़ ू
कर ता।</w>
क ण्
ऊँ गा</w>
आ हरण</w>
अ हम</w>
W )</w>
MA I
☻ ☻
हिं सक</w>
सामं ज
शोका कुल</w>
विवे क</w>
प्रचु र</w>
पौ रा
द ली
ट री
चि ड़ी</w>
गु ट</w>
क्र ू
क्र मित</w>
उ परो
उ ँ
r om
T h
, "</w>
ि तों</w>
स् पै
सोव ियत</w>
सम् भावना</w>
वा दे</w>
लो ं
भंडार ित</w>
बने ।</w>
बन वा
बढ़ा कर</w>
फार सी</w>
पा या।</w>
द् द
जाये गी।</w>
ग्रन् थ</w>
कारा वास</w>
ईमान दारी</w>
a a
201 6)</w>
ह क़ी
स्त म्भ</w>
सि ड
ल् डर
मौज़ू दा</w>
बैठ कों</w>
पा ली</w>
पा द</w>
प तियों</w>
न्यायाधी शों</w>
त् ‍य</w>
त ारी</w>
झू ठी</w>
ज्ञ ,</w>
को ल्
अध्या पक</w>
gnom e-
S I
I C
हो ते।</w>
सी पी
लड़ ते</w>
मुता बिक</w>
महि लाएं</w>
प्र जाति</w>
पा ण्ड
नौ कर
दिलचस्प ी</w>
द बा</w>
थे -
त ंगी</w>
गण ेश</w>
खु लने</w>
की र</w>
उद्य मी</w>
आं बेडकर</w>
श -
व सा
र हो,</w>
भू भाग</w>
बेह तर
बा बा</w>
बदरू द्दीन</w>
फै ले</w>
पद्ध तियों</w>
त्र ,</w>
जरु रत</w>
चम त्
खे तों</w>
G N
4 7</w>
4 ,
संवेद ना</w>
मॉ ड्यूल</w>
मा ही</w>
भेज ते</w>
बो ल
फा उंड
दिशा ओं</w>
ता ओं,</w>
ढा ल</w>
डि वा
डा क
टे प</w>
जगन् नाथ</w>
ज ेंट</w>
छा या
गृ ह
ग ्य</w>
कु मार
ऋ तु</w>
ऊँ चे</w>
आपरा धिक</w>
अन्वे षण</w>
whats this</w>
as t</w>
ार ,</w>
हस्ताक्ष रित</w>
स्ना तको
सहे ज</w>
शा श्
लाभ दायक</w>
रू सी</w>
मोह म्मद)</w>
मो टी</w>
मुह लत</w>
बोह तान</w>
बल् कि)</w>
फ़रमा या</w>
पे शा
निगे ह
द ण्ड</w>
जरु री</w>
गो ला
खा र</w>
कार ण
ए ख्तियार</w>
अ सफलता</w>
( हा
( भ
( N
स्प द</w>
वा क्या
ल ियो</w>
य ो</w>
माध्य मिक</w>
मर त
भयं कर</w>
फिल् मों</w>
प्रबंध ित</w>
प्र बन्ध</w>
पां व</w>
ठा न</w>
ए ंड
उप निष
अ क्षम
http://pranabmukherjee.nic.in/prh 0
b ut
b ></w>
8 .
हॉ ँ</w>
स्तंभ ों</w>
सौ न्
सह ारे</w>
वि पक्ष</w>
मूर् तियों</w>
मू -
मुना सि
मक् ख
बे ख़बर</w>
पुन रु
नव म्बर,</w>
ध नी</w>
दि न,</w>
ड़ ि
जाएँ ,</w>
आश्चर्य जनक</w>
आखि री</w>
an d
हालां कि,</w>
संस्था एं</w>
स- पास</w>
शाश् वत</w>
व्यवस्था ओं</w>
पा लक</w>
त न,</w>
डा लता</w>
टाइ म्स</w>
चट् टा
o g
( यू
ॅ ा
स्ट ोर</w>
सम न्वित</w>
सब ब</w>
भ्र मण</w>
बहु मूल्य</w>
पह ने</w>
द्र ा</w>
दा ने</w>
द वाओं</w>
झ ार
चला एँ</w>
क्षति ग्रस्त</w>
सह -
शुभ -
वा ले)</w>
रोक थाम</w>
भी तरी</w>
बो ला,</w>
प्रशास क</w>
न ’</w>
दु बारा</w>
तद नुसार</w>
गु र्
गय ी.</w>
क् लब</w>
ओ /
अपा र</w>
अप लोड</w>
UR L</w>
( &</w>
ि कता</w>
हु र्इ</w>
सं कट
वि लय</w>
र ियर</w>
मह र्षि</w>
म णी
न ारी</w>
चला ना</w>
घट कों</w>
ए ब</w>
ंग ें</w>
or g
१ २
होगा )</w>
व ही
व पूर्ण</w>
मा पन</w>
मा त</w>
ब से</w>
दिना ंकित</w>
ताज महल</w>
गर्भा शय</w>
कार कों</w>
क़ ै
ऑ टो
ं ब</w>
c ri
विशेष ज्ञता</w>
वार्ताला प</w>
लेन देन</w>
रु ख़</w>
मा या</w>
नि भाई</w>
न ह
दि श</w>
त् वा
जि ज्ञा
ज़ ब</w>
ज ल-
क्षति पूर्ति</w>
198 8</w>
हल् के</w>
हटा ना</w>
शु ष्क</w>
विज य
वि कार</w>
वर् ड
रो जग
रख नेवाले</w>
म सौदा</w>
तद बीर</w>
ड ियाँ</w>
ख रे</w>
क् वे
कहा )</w>
एन पीएस</w>
आई )</w>
अम र</w>
अ मर
t a
i t</w>
7 5
ौ प
ह ्र
सहभा गिता</w>
रजि स्ट्र
या म</w>
यह ॉ</w>
मत् स्य</w>
न् तों</w>
न ों)</w>
न ॉर्
द्वारका नाथ</w>
ग्रं थि</w>
क्रिया कलाप</w>
क सौ
आं ख</w>
अ रा
201 9</w>
( ज़
सा प्ता
सत् ता
य कीन</w>
बलि दान</w>
पैग़म् बर)</w>
प डे
नि धि
दर् शकों</w>
डि रे
ज्ञा न,</w>
ज नात्मक</w>
कर् त्
ऑं खों</w>
ंत्र िकी</w>
’ ,</w>
म िया</w>
म ला</w>
भे ड़</w>
ब ढ</w>
फै ली</w>
पत् ते</w>
दा ना</w>
चुंब कीय</w>
क्षेत्र ,</w>
को मल</w>
को ं
कॉन्फ़िग रेशन</w>
( v
स् वर्ग</w>
सुभाष बाबू</w>
सर् वर
व्या प्त</w>
वा जपे
मध्य वर्ती</w>
ब ली</w>
पुरु ष
निर्ण यों</w>
तृ तीय</w>
टे स्ट</w>
चित्र कला</w>
गंभी रता</w>
खिसका एँ</w>
कहा नियाँ</w>
क न्न
आ ज,</w>
p h
E MAI
( लोगों)</w>
शिल् प
मे हरा
भाग वत</w>
बर् ग</w>
प्रमाण ीकरण</w>
परि पूर्ण</w>
ठ ु
जिन् नों</w>
क्षेत्र फल</w>
कम ्यु
en d
सू खे</w>
सब )</w>
लि स्ट</w>
राज वंश</w>
मक़ सूद</w>
फरमा एगा</w>
पुनर् वास</w>
पहचा ना</w>
प टना</w>
नि ष्ठा
धन्य वाद
तौ रै
त कर्ता</w>
झु क</w>
जब तक</w>
गाँ धी</w>
कुशा दा</w>
कथा ओं</w>
am e
3 7
( 197
हि म</w>
वि लियम</w>
मु न्
भव न,</w>
ब हार</w>
प्रत्य ु
पर जीवी</w>
नू न</w>
नि रूपित</w>
धरो हर</w>
डि ज़ा
ड क</w>
जमी ं
घो र</w>
गुज़ रे</w>
के ल</w>
ऊ तकों</w>
इ ड</w>
आबं टन</w>
आं दो
आ परे
l )</w>
@ it
हुई )</w>
सु श्री</w>
सना तन</w>
श्र ृ
में -
बै ंड</w>
पे ड़ों</w>
पहुँचा ने</w>
नस् लों</w>
दे गा,</w>
जी ने</w>
घोष णा
करवा ने</w>
अ ठ
ंड ों</w>
ं दा
à¤¸ à¤à¤
@inf o</w>
स्त न
सां प्रदायिक</w>
स ु</w>
मु ना</w>
भे जा,</w>
ब्रैसे रो</w>
बी त</w>
प्रभा वों</w>
प्रदा ह</w>
पत्र ,</w>
न्या सी</w>
न '</w>
जाय ,</w>
जान ती</w>
चिं तित</w>
अ खंड
( जिसे</w>
सा धक</w>
सफ़ र</w>
स दृ
वे ष</w>
मार्ग दर्शक</w>
बुल न्द</w>
बढ़ े</w>
फै लाने</w>
पे टेंट</w>
दि ली</w>
ता ?</w>
जैसा कि</w>
जाएँ गे।</w>
जांच ें</w>
ज मान
चा इ
कला त्मक</w>
E A
हथिय ारों</w>
सि ख</w>
स ते</w>
शि वि
शांति पूर्ण</w>
वय स्क</w>
मु क्त
मं त्र</w>
भेजा ।</w>
भ ृ
फि ल</w>
पार् ट
दी ं</w>
ठहर ने</w>
ट ेक</w>
छ ेद</w>
कृ पा
कल् पित</w>
करतू तों</w>
क प</w>
आय त</w>
अनु देश</w>
@ ac
201 5)</w>
199 8</w>
सि द्ध
श िय
लेकि न,</w>
रेखा ंकित</w>
राज़ ्य</w>
मिला .</w>
बै ंग
पत्र -
पढ़ ना</w>
पड़ ेगा।</w>
ना मित</w>
ति थि
जु ड़ने</w>
ग़ु लाम</w>
गर् भव
आलो च
आ स्ट्रे
अग् नि
ं त्र</w>
w )</w>
c o
198 6</w>
( N)</w>
हल् की</w>
स ।</w>
स उ
मे ला</w>
ब ड़</w>
ने को</w>
नवं बर,</w>
दु ल</w>
दी प</w>
थी -
तरह -
जा ल
च ारे</w>
उ खा
अनु ज्ञा</w>
अ मी
2 1
सम्बन् धों</w>
शॉर् ट
व ियाँ</w>
ले क्
र थ</w>
ब ार्
फरमा नी</w>
न म
कर ते,</w>
ए यर</w>
उ म
उ ग
अभि प्राय</w>
198 7</w>
हकी म</w>
सु नो
समा ना
व्य ता</w>
वाय दे</w>
ला भार्
मेडि कल</w>
बा ब</w>
प्र क
पाद क</w>
ना म,</w>
दु ओं</w>
दिशा -
ठहरा ए</w>
झू ठ
च् चा
चु प</w>
गे हूं</w>
ख रा
कर् मी</w>
आदर् शों</w>
अमृ त
हॉ ल</w>
हेक्टे यर</w>
ह वाले</w>
साँ चा
संख ्य</w>
लड़ कों</w>
य े।</w>
बना वट</w>
पर्व तीय</w>
दर्शा ती</w>
त् ती</w>
ता प्राप्त</w>
चु पचा
चाहू ंगा</w>
गि नी</w>
क्ष ्य</w>
क़ बूल</w>
कर वा</w>
18 6
िय ॉ</w>
स्थ ता</w>
सी नों</w>
मु ल्
मधु र</w>
बि हारी</w>
बि नेट</w>
ब क
पौरा णिक</w>
ना /
दि ग्ध</w>
ख़ ी</w>
काश् मीर</w>
एक ड़</w>
उल टे</w>
उत्सु क</w>
उ ड़ा</w>
इन् साफ़</w>
इकट् ठे</w>
आर क्षण</w>
आभा सी</w>
आदि वासी</w>
असफल .</w>
अनुया यी</w>
अट कल</w>
सोच ना</w>
सो ल
संरच नात्मक</w>
ललि ता</w>
मं दी</w>
बु तों</w>
बी च,</w>
पैग़ ा
निका लकर</w>
निः शुल्क</w>
न व</w>
दिखा यी</w>
दिख ता</w>
ज़रु रत</w>
छ वियों</w>
कर् त्ता</w>
करनेवा ला,</w>
à¤¿à¤ ¯
tin g</w>
ti m
ic a.</w>
ic Name</w>
ag e</w>
I T
Gener icName</w>
( M
( 3
ार स</w>
हर कत</w>
सा धना</w>
शी ट</w>
ला एँगे</w>
मा त्रा
बु लाते</w>
प्रसार ित</w>
प्रति वेदन</w>
डे ल्
किया -
कर म</w>
उपरा ंत</w>
उत्पाद ित</w>
उ ंग
इंग ित</w>
इ क
आकां क्षाओं</w>
आ स</w>
à¥à¤ ¯
wor l
S S
( खुदा</w>
साँचा ः
शब्दा वली</w>
शत्रु ओं</w>
लोगों !</w>
य ज्ञ</w>
मु न्त
महत् वा
मंग ल</w>
बे व
ब रह
प्रत्य र्थी</w>
पूर्व ,</w>
पद क</w>
प डे</w>
न्य स्त</w>
ना ना
दो ं,</w>
त्र िक</w>
ताला ब</w>
तकनी कों</w>
चू ँकि</w>
चर ित</w>
गम्भी र</w>
क्ट्र ी</w>
कार स्ता
(क हीं)</w>
( ताकि</w>
सोच- विचार</w>
सिं धु</w>
सा ठ</w>
शिंग टन</w>
विश्व -
ल् फ</w>
मौजि ज़ा</w>
मृ तक</w>
फरमा बरदार</w>
नाट कीय</w>
नज र
दर ते</w>
ता जों</w>
जि बरी
चै न
खे लने</w>
ख़ुश ख़बरी</w>
(सब )</w>
(उन से)</w>
(अप नी)</w>
( मोहम्मद)</w>
( मरने</w>
( बेहिश्त</w>
( फिर)</w>
( इतना</w>
स्वा य
समू चे</w>
श स</w>
श रा
विवा दों</w>
रु ग्
मु हर</w>
ब्र ॉ
प्रार म्भिक</w>
पा ट</w>
पत्थ रों</w>
ता व</w>
ज्जु ब</w>
ग्रे ड</w>
ग्रा म
क् टरों</w>
का इ
करा ते</w>
आ ल
अधीन स्थ</w>
l in
a t</w>
199 3</w>
ि क,</w>
श )</w>
विवेका नंद</w>
रहे गी।</w>
र क्षा
भाष ी</w>
पै टर्न</w>
पू रब</w>
पुनर् गठन</w>
नि गाह</w>
नज दीक</w>
दार ,</w>
तात् कालिक</w>
उन् नी
अनु ज्ञ
t h</w>
c u
( M)</w>
स्नातको त्तर</w>
सू झ
सव ारी</w>
शि ष्य</w>
लै ंगिक</w>
ल ड़</w>
परि संपत्
पं क्तियों</w>
निर् वहन</w>
दक्षि ण-
थी ं.</w>
ट्र स्ट</w>
ट ार्
जागर ण</w>
चाहिय े,</w>
कश् मी
आया म</w>
अभ यार
अप मानजनक</w>
अ ट्
5 ,
हुआ )</w>
व शी
रहे .</w>
रसी द</w>
निग मित</w>
दो हरी</w>
दे ना,</w>
थु न</w>
त्यो हार</w>
त फ
छा पें</w>
गर्भव ती</w>
को च</w>
उद्यो ग
अन्त ः
अनुयाय ियों</w>
ंग र</w>
i on
होंग े.</w>
सॉ फ़्
श्रेष्ठ ता</w>
बद ली</w>
पृष्ठ ों</w>
दी .</w>
त दार</w>
डाय रे
ड म</w>
टे बल</w>
टी का</w>
जू ट</w>
जम् मू-
कू द</w>
ol .</w>
en t
( 196
ारो पण</w>
सु खद</w>
सरस्व ती</w>
ष ि
विधा यी</w>
वि राम</w>
वाय रस</w>
रह नेवाले</w>
यो ं/
माय ने</w>
बु श</w>
पु तली</w>
पी -
पिक् सेल</w>
धार ाओं</w>
दो स्ती</w>
दि ए।</w>
थे ?</w>
ता लि
णा चल</w>
चुपचा प</w>
चर् चा
खा नों</w>
क्षेत्र क</w>
एफ सी
आई ।</w>
आ ए,</w>
B AR</w>
ड़ े</w>
से टि
साम यिक</w>
संचि का</w>
श्व सन</w>
वा कई</w>
रोक ें</w>
मु ख़ा
प्रा तः</w>
पा प</w>
निर्दे शा
दी व</w>
दाय गी</w>
ट रिंग</w>
घ ड़
औ चि
उ ज
अपरि चित</w>
अन् तरा
अनिवार ्य
अ स्
p ar
.201 7</w>
( बी
ेंग ी।</w>
से न्
संस् कार</w>
लौटा ए</w>
रो पण</w>
रस् सी</w>
भ क्ति
दे ता।</w>
तोष जनक</w>
तेलुग ु</w>
गो द</w>
गुनाह गार</w>
गरि मा</w>
खे ल
करू णा
इ ना
अल ार्म</w>
अधि ग्रहण</w>
à¤¾à¤ à¤
स् लो
सू न</w>
साप्ता हिक</w>
राज पू
रा- पूरा</w>
र साय
मुना फि
म दों</w>
भा वा
ब्र ो
पो रेशन</w>
पुन री
नार ियल</w>
नहीं ;</w>
त ें
जो शी</w>
जो श</w>
खा दी</w>
खजू र</w>
अल्ला ह,</w>
अ मीर</w>
men u</w>
@ a
</ b></w>
ू स</w>
हार ,</w>
शु भार
शी त
वा जि
मै सूर</w>
बु ढ़ा
बि स्तर</w>
बा ज़
बद कार</w>
प्र क्रिया।</w>
पहुँ चे
दिल् ली,</w>
दाय र</w>
त ियों,</w>
कि मी.</w>
ए पी
9 )</w>
199 0</w>
राज ़</w>
बा ल्
प्ला स्टिक</w>
पंद्र ह</w>
निरा शा</w>
न या
त ार्
टि का
चर् च</w>
ग द्
खा द्या
कौ ंसिल</w>
कमा या</w>
औ ं
उप हास</w>
अव धि
r )</w>
g h
G oog
@a ol.</w>
सहि ष्ण
स पने</w>
विजे ता</w>
वि चित्र</w>
रि एक्
ध् ‍
गणि तीय</w>
कै लेंडर</w>
क ता,</w>
ऑ प्
एह सास</w>
एल्गोरि थ्
एच टी
अक्ष रों</w>
ंग ो</w>
O -
EMAI L</w>
9 .
5 5</w>
15 0</w>
सिं गा
सदृ श</w>
विकि रण</w>
रो ड</w>
यु क़्त</w>
म तें</w>
बी च
प्रार ू
परी क्षक</w>
नो किया</w>
दा श्त</w>
ती र</w>
जु ल्म</w>
छु ड़ा
चि ट्
ख़ त्म</w>
क्र म,</w>
के श</w>
एक ,</w>
आत्म विश्वास</w>
वि न्यस्त</w>
वा ष्
रजि स्ट
मै ने
में ,
फे स</w>
तीव ्रता</w>
तरह- तरह</w>
घि रा</w>
कृ त्यों</w>
ऊ ष्
उत् तम
अनु करण</w>
9 .</w>
( अच्छा</w>
स्व ार्थ</w>
सश क्
सम कक्ष</w>
वाक़ि फ़कार</w>
रू जू</w>
मान दंड
बु लाए</w>
फ ंड</w>
नेअम तों</w>
नू दी</w>
न फ
ध ं
दा एं</w>
डरा ओ</w>
ट वेयर</w>
घ टन</w>
ग्रु प</w>
खे लों</w>
क्या )</w>
इष्ट- पूज्य</w>
इतिहा स
इ ख्तेयार</w>
आधुनि कीकरण</w>
à¤ 
3 ,</w>
199 6</w>
( ग़र
( कुफ्
५ ०</w>
हो नेवाली</w>
हा वी</w>
सुल ह</w>
सं योज
शर् मा</w>
विधाय िका</w>
लो कों</w>
रेगि स्तान</w>
रिया ई</w>
मार ते</w>
ट िया
जि क्र</w>
च् ‍
कार्य क्रम
आ र्य</w>
आ इस
le :</w>
सम ता</w>
व्या करण</w>
वाद क</w>
वर े
यूनि वर्
मि शन
मि ति</w>
बा ज़ी</w>
प्र वर्त
प्र जा</w>
न् तरण</w>
दौ लत</w>
दू र-
कोय ले</w>
उ दय</w>
आ रा
for ec
forec ast</w>
UR I</w>
वि ला
व क्र</w>
ल श्
रो मा
राधा कृष्णन</w>
रा ज्
भाषा एँ</w>
बी ज
फूँ क</w>
पर न्
निवे शक</w>
निमंत्र ण</w>
निक लती</w>
ज़िम्मे दार</w>
cri p
ारि ज</w>
सं ग्रह
श ृंखला</w>
लक्ष् मी</w>
रौ शनी</w>
बावजू द,</w>
पक ड़ने</w>
प च्ची
निक ,</w>
चु नी</w>
क्य ु
किया ?</w>
ओ .</w>
{ 1
j ec
: -
विस्फो ट</w>
वित्त पोषण</w>
मशी नों</w>
म ः</w>
फर् क</w>
प्र वर्
पे शी
पत् तन</w>
न् त्र</w>
नौ सेना</w>
निदेश कों</w>
देव नागरी</w>
ति लक</w>
गौ र</w>
क्ष ी
अ मन</w>
ं ज
हा य
से टअप</w>
सा इन</w>
ले नी</w>
ल ट</w>
मजिस्ट्रे ट</w>
प्र सव</w>
पिछ ड़े</w>
तमन् ना</w>
ग्र ीन</w>
गु णा
ख़ याल</w>
ख ने</w>
ख ड़
क्र ै
करे .</w>
अपर्या प्त</w>
or t
.0 5
. 11
( 6)</w>
स्वतं त्र
वा जे
ला ज़ि
मौ न</w>
मे ले</w>
बड़ े-
ब ारों</w>
पु स्‍त
पह े
दा एँ</w>
ते ज़ी</w>
ट्र ी
जन्म दिन</w>
ख़ ज़ा
कै प्
उपरो क्त</w>
आ स-पास</w>
अभ ियुक्त</w>
` %</w>
2019 )</w>
हो ती,</w>
सर ,</w>
विश्वविद्या लय,</w>
वि ं
लार् वा</w>
म ।</w>
भाव ों</w>
बुनिया द</w>
बि छ
बर् तन</w>
बद कारी</w>
पू रा-पूरा</w>
पंचा यत</w>
पं क्त
प ल्ल
दिया )</w>
दिनांक :</w>
दि लाने</w>
जय पुर</w>
कै बिनेट</w>
क नी</w>
अकार थ</w>
t or
@tit le:</w>
सो ना</w>
सि र
सहे जा</w>
संग्र हित</w>
व्य ंग
विद्या लयों</w>
वर् गा
ल् लाह</w>
मि नी</w>
बे गम</w>
पै दल</w>
नि क्षेप</w>
ण )</w>
ढ ु
झा ँ
घ ट</w>
उत् थान</w>
अधिकार ी,</w>
j ut
Goog le</w>
स्त्रो त</w>
सिफारि शों</w>
सक ते.</w>
वो ल्
विकल्प ों</w>
वारा ण
रे डियो
राज ी</w>
य री</w>
बुरा इयों</w>
बजा या</w>
फि ल
फाउंड ेशन</w>
पु त्री</w>
त्‍ य
ज् म</w>
चे न्न
एसो सिएशन</w>
उठ ते</w>
इ ण्ड
इ टली</w>
ou ld</w>
a u
199 1</w>
स्के ल</w>
सै कड़ों</w>
से %</w>
सी ना</w>
सि पा
सां प</w>
समुच्च य</w>
वर् ल्ड</w>
वर ना</w>
रख नेवाला</w>
र हो।</w>
मान्य ताप्राप्त</w>
मलया लम</w>
मज़बू ती</w>
भर ें</w>
बा कू</w>
पूंजी गत</w>
पा श्
ध ड़
ट्र ल</w>
क्रिया कलापों</w>
कम -से-
एमएस एमई</w>
अं धा</w>
à¥ 
yp e</w>
www .</w>
198 0</w>
ृ ह</w>
स्व र
समे त</w>
वे दों</w>
ली ला</w>
लाभ कारी</w>
रो के</w>
रू पी</w>
मृ दा</w>
बह नों</w>
पार म्
ने ।</w>
नी ।</w>
निम् ना
ढ ि
डा उन</w>
आभू षण</w>
आ सा
अनु स्मारक</w>
sh ould</w>
195 7</w>
सा त्मक</w>
वृ द्धि
विवे क
रा वण</w>
याचिका कर्ता</w>
मार ता</w>
भौति की</w>
निप टा
न ार्
तुम् हीं</w>
डी )</w>
ज़ू म</w>
ग़ा त</w>
क् टो
कॉ ले
कि शोर</w>
करू ँ</w>
अनु बंध</w>
अध र्
अंड मान</w>
ार े)</w>
हैं !</w>
सम् बंध</w>
ल- खोलकर</w>
रहा .</w>
मुद् दत</w>
भा ई
बछ ड़े</w>
दर जे</w>
ण ित</w>
ज्यो ति</w>
जागरू क</w>
चम की
च खा
ग़ नी
खो ल-खोलकर</w>
करें )</w>
एक्सटें शन</w>
अकार त</w>
E X
स्थाना ंतरण</w>
सि द्
सं स्थापक</w>
वाजे ए</w>
वसू ल</w>
वच न
वग़ै रह)</w>
माबू दों</w>
मख़ लू
मंजि ल</w>
म न,</w>
ब् ले
बरह क़</w>
बन ती</w>
पॉ प
नी य
निगेह बान</w>
दीर् घ</w>
डेवि ड</w>
झुठला या,</w>
जहन्नु मी</w>
जमा अत</w>
चे री</w>
कु श</w>
क़ )</w>
क पटा
आश्र य</w>
आय े।</w>
अप डेट</w>
अग लों</w>
अंतर िम</w>
अ मान्य</w>
à¤¾à¤à¤ </w>
worl d.</w>
.0 1
( हाँ)</w>
( चन्द</w>
( अपना)</w>
स्त्र ा
सम तल</w>
मास्ट र्स</w>
फ़ो ल्डर
प्रिय ता</w>
पूछ े</w>
पी ढ़ियों</w>
निष् पक्ष</w>
नियन्त्र ण</w>
नर ेंद्र</w>
जी तने</w>
च ंडी
घु ड़
घं टा</w>
को ष्ठ
कार )</w>
एफ .</w>
इ तरा
आया मी</w>
s :%</w>
सु ल्
सां के
सं हार</w>
स जीव</w>
वरी य
लौ ट
लु क</w>
रिश् ते
रिया य
मो क</w>
मसी ह</w>
म रे</w>
बेहतर ीन</w>
बा स</w>
बना ए
बड़ ाई</w>
निक ल
डि जी
ज् वर</w>
छोटे- छोटे</w>
गिर ने</w>
को ष
ऑ ब्
आर )</w>
आधार शिला</w>
आं खें</w>
अरवि ंद</w>
अ च
ं द
समझ ती</w>
सके गी</w>
स ू</w>
यु सु
मि .</w>
परि प्रे
नी ल
ना व</w>
धू म्र
ति रू
चौ थाई</w>
चे तन</w>
कसौ टी</w>
ऊ न</w>
आया तित</w>
L DA
An jut
( 4
् स</w>
सा म्
सहे जें
सत्या ग्रह</w>
ली ज</w>
लिया .</w>
र् द
म न्द</w>
बि न्
फि र,</w>
प्रौ ढ़</w>
प्रा योजित</w>
पु रम</w>
पर ि</w>
पर दा
निको बार</w>
ध रा</w>
ता ज्जुब</w>
जाय ेंगे</w>
चर् या</w>
ग्री ष्
ख री</w>
ऋ णों</w>
अर्था त्
अभि लेखा
E n
शि श्
वर् जित</w>
मूल तः</w>
मुर् दा</w>
मा लों</w>
मणी लाल</w>
मंत्रि मंडल</w>
बंध क</w>
फ िया</w>
पर्य वेक्षण</w>
प कर</w>
दि लाया</w>
डी टी
जॉर् ज</w>
ऑफ लाइन</w>
उम् दा</w>
अ ली
s :</w>
.... ..</w>
१ २</w>
सू र्
सचि व,</w>
सउ दी</w>
वाद -वि
यो ं
यथ ार्थ
ब्रि तानी</w>
फ़ ं
फ ँ
प्रदर् श
पु रो
पा गल</w>
निका लें</w>
डा ँ
जाए ं,</w>
गा ई</w>
ग री</w>
कला ओं</w>
क पड़
उल झ
उ ंड</w>
आ श्व
अव शेष</w>
अनु क्रिया</w>
d er</w>
194 9</w>
हिस् से
सुंदर ता</w>
श्री वास्त
वे तन
विजे ताओं</w>
लाभ प्रद</w>
रो कता</w>
योग िक</w>
म स्त</w>
प्रमाण न</w>
ध ब्
दु रु
डा ई</w>
जंग लों</w>
क्र ॉ
कृ तियां</w>
काव्य -
का वट</w>
कर ता,</w>
क ियां</w>
आ खे
e b
con di
स त्र
शताब् दियों</w>
ली टर</w>
र होगे</w>
म चा</w>
बैठ ी</w>
बह ा</w>
प्रति बंधित</w>
पॉलि सी</w>
नियो जक</w>
त द्
ट् टा</w>
चन्द्र मा</w>
क्ला इंट</w>
कृष क</w>
आए गी</w>
e ur
4 00</w>
सू अर</w>
सर लता</w>
वृ क्षों</w>
रो टी</w>
रु सवा</w>
ब् लॉ
बैठ ते</w>
प्रौद्योगि की,</w>
पी ए
पर् य</w>
पत्रि काओं</w>
ने मत</w>
नि विदा</w>
दु रू
दर् भ</w>
तबा ह</w>
ड ्रे
ट्रे ड</w>
उद्ध ृत</w>
आमंत्र ण</w>
अध ्
p er
10 -
.. .
सं कीर्ण</w>
स पना</w>
वे ट</w>
विज्ञा नी</w>
वा शिंगटन</w>
मे शन</w>
मा ध
बंध ों</w>
न म्बर</w>
दी ने</w>
त्य ौ
ठीक- ठीक</w>
कट ौ
क पा
ईस वी</w>
अर् श</w>
अनुकम् पा</w>
ंग ता</w>
3 8</w>
१ ५</w>
स्ने ह</w>
सिने मा</w>
सांके तिक</w>
संत ति</w>
शा स्ति</w>
म् बे</w>
फ़ र्
प श
द्व ं
दे ही</w>
दुर् गा</w>
ता कार</w>
टाइ म</w>
क्यों कर</w>
क़ा बि
उद्धर ण</w>
ई द</w>
अव धारित</w>
अन ु</w>
fr anc
1. 4.
" वह</w>
हु ए
सुल भ</w>
समा प्
समझ दार</w>
वा कि
मान कर</w>
भागी दारों</w>
बना एं</w>
दीर् घा
द ंत</w>
तर ,</w>
ड्रा फ्ट</w>
जर िये</w>
ज त्
चेन् नई</w>
ग ज
खा द</w>
कै द</w>
क़ त
करेंगे .</w>
करु णा
कर के,</w>
कम-से- कम</w>
उ भर</w>
अहम दाबाद</w>
x x
d er
200 7
संबं धि
संगोष्ठ ी</w>
श हर
वृ द्ध</w>
विश् ‍
मे नन</w>
मुख़ ्य</w>
मान चित्र</w>
माँग ता</w>
बना यी</w>
ब म्बई</w>
प ला
न् स
ना श</w>
त ड़
ड ें</w>
चू र</w>
क स्
ए ट
असी म</w>
o v
हफ् ते</w>
स्त न</w>
स्कै न</w>
सार्वभौ मिक</w>
सरकार ें</w>
स वे
व्य तीत</w>
मे घा
भ त्
ब हाल</w>
पो शा
पर मा
ना प</w>
देख रेख</w>
डा ला।</w>
जिन् नात</w>
छ ी
घ ों
गुणव त्
गु ल</w>
गय ीं</w>
खो ले</w>
ख़रा बी</w>
अन् तर</w>
ं तिक</w>
à¤à¤° à¥à¤</w>
condi tion</w>
I MA
( किताब)</w>
( A
३ ०</w>
ह्रा स</w>
स्वास्थ ्य
सख् त)</w>
संदर्भ ित</w>
श् त)</w>
रंग ीन</w>
म् मा</w>
बा ग़ात</w>
बा ईं</w>
बा ंस</w>
फरमा ई</w>
पू ं
नाट ्य</w>
देखो )</w>
त ारि
ड ब
ग्रा ही</w>
ग़ै ब</w>
ख़ुश नूदी</w>
कं प</w>
इ म
अरु णाचल</w>
अखंड ता</w>
अ भी
3 4
198 9</w>
(का बा)</w>
सं सार
रो ं)</w>
रु ख</w>
बल राम</w>
पूछा ,</w>
नि न</w>
द ह</w>
टा -
ट नों</w>
कह ेगा</w>
उम्मीद वार</w>
उप क्रमों</w>
आदर् श
s y
i r
g )</w>
5 1</w>
( अगर</w>
श्रीवास्त व,</w>
शि ष
शि वा
वा ला
लॉन् च</w>
रिश् ते</w>
र ियों</w>
मना ने</w>
मंदि र,</w>
म ता
ब् लॉक</w>
बैठ कर</w>
बन ो</w>
बंध ी</w>
पा त्रों</w>
नि के
न ों
द्र ता</w>
थ ित</w>
ट /
चा लु
घट नाएं</w>
कान पुर</w>
क तों</w>
ई- शासन</w>
आज्ञा पालन</w>
अं क
हिन्दु स्तान</w>
श नल</w>
विश्रा म</w>
लू ँ
रूप -से</w>
मै प</w>
मान सि
भविष्य वाणी</w>
भ रत</w>
बी ते</w>
फी सदी</w>
फि ट</w>
फ़ै सले</w>
प्रा ची
दु ग्ध</w>
ति र
डे ड</w>
चाह ेंगे</w>
ख़ ू
उपा सना</w>
आप त्ति</w>
आ यो
अपरा धों</w>
अनु मत
अका दे
à¥à¤ 
@ lab
194 6</w>
हटा या</w>
ह ियों</w>
व्या याम</w>
विद्व त</w>
वि केट</w>
रे त</w>
रूप ण</w>
मान वा
बो ला</w>
फ लता</w>
प्री मियम</w>
नीला मी</w>
ड्र ि
टे शन</w>
करा ए</w>
इसरा इल</w>
इं स</w>
इ श</w>
अस्प ृ
अं तः</w>
il e</w>
199 7</w>
हड् डियों</w>
शु द्धता</w>
विकला ंग</w>
वार ,</w>
व का
लक्ष् मण</w>
म् र</w>
मे घ
मुनासि ब</w>
मान दंड</w>
पे टी</w>
पक ड़ा</w>
ती ं।</w>
ता क</w>
ग़ लत</w>
ग ों
ए ट</w>
ए जेंट</w>
अव हे
अभि लेखों</w>
अक् ल</w>
हिं द</w>
श्रो त</w>
वृ ह
लग ो</w>
र वै
मु सा
मध्य स्थ</w>
म ज्
फ्लै ग</w>
प्र स्‍तु
पाश् चा
परिवर् धित</w>
न्याय मूर्ति</w>
निस् ट</w>
न शी
द्वि ती
खंड न</w>
क्रिया न्वित</w>
कौ श
कार्य कलाप</w>
अभि लेख
franc e.</w>
S T
होगा ;</w>
हो कर)</w>
स्फी ति</w>
स्ट्री ट</w>
सब् सि
वा ला,</w>
मे श्वर</w>
फ्र ेंस</w>
प्रभार ित</w>
पैरा मीटर</w>
निका स</w>
नामा ंकन</w>
नवान्वे षी</w>
दे गा.</w>
तात् पर्य</w>
जाय े,</w>
जा गृ
ज़ बा
छोड़ ना</w>
छो ड़े</w>
खु दाई</w>
ख़ौ फ़</w>
कि शो
क टाई</w>
ऐ ं
उत ारा
इंस्टी ट्यूट</w>
इ लै
v inc
0 1</w>
( जिसके</w>
हु सैन</w>
हम त</w>
सर )</w>
सं योग</w>
वाय र
वा ले,</w>
रंग -
महत्वा कां
मंड ली</w>
भ्रू ण</w>
बाँ ध</w>
बढ़ िया</w>
प्रति क्रिया
पे रिस</w>
पा एँ
पराज ित</w>
पठ न</w>
निश्चि न्त</w>
धुं ध
दिसम् बर,</w>
ड़ा -
घं टों</w>
ख रा</w>
ख ं
ऑं ख</w>
उद्य मिता</w>
उत् साह
अनुप स्थित</w>
( n)</w>
ह् न</w>
सेवा एँ</w>
सु गम</w>
सी ल</w>
सिं धी</w>
समी प</w>
संबो धन</w>
षा ण</w>
लि हा
ल गों</w>
रू म</w>
योग -
भी त</w>
बू ढ़े</w>
बा धित</w>
बा क्स</w>
बह ु</w>
निप ट
दिशा निर्देश</w>
त् थान</w>
जाय ेंगे।</w>
ई रानी</w>
आई टी
आ भार</w>
सर् वे
सं दे
वि नियम</w>
वन स्प
लो )</w>
य मुना</w>
पै मान</w>
पीड ित</w>
परिपक् वता</w>
नो ड्स</w>
निका लता</w>
देश ी
ति न</w>
त लब</w>
छत्तीस गढ़</w>
कृषि ,</w>
का ल्प
कम्प ्यू
औ जार
उत्ते जित</w>
उठ ने</w>
इला के</w>
इ तर</w>
अर् द्ध
अठ ार
ah oo
199 5</w>
( I)</w>
% )</w>
हार ्य</w>
ह ॉ</w>
सिं ह,</w>
सहयोग ियों</w>
रिया स
र ियम</w>
यु वा
बि ना,</w>
बा जू</w>
ब गी
पुस्त काल
नागरि कता</w>
ना ए</w>
दिखा एं</w>
द क्ष</w>
टाइ ल</w>
जाएगा )</w>
ज ुदा</w>
छ ीन</w>
चौ पायों</w>
के र
कित् तूर</w>
कब् जे</w>
ऋष ि</w>
उठा ते</w>
इ धर</w>
अब्दु ल्ला</w>
अति मानसिक</w>
201 4)</w>
ही -
स्वाय त्त</w>
शा ं
व्य क्त
वि कृत</w>
राष्ट्रप ति
राज्य क्षेत्र</w>
राज स्था
महा काव्य</w>
भार ित</w>
ब ढ़
पो षित</w>
पाइ प</w>
निका लते</w>
धर् म)</w>
ध री</w>
ड रा</w>
झु काव</w>
ग्र हों</w>
गुं जाइश</w>
ग ना</w>
खा कर</w>
कुं ज
क ड़</w>
अन ंत</w>
k )</w>
e f
( हम</w>
िय े,</w>
ार ियों</w>
से ल्
सुविधा जनक</w>
साम ने)</w>
सा फ्टवेयर</w>
सन् तु
र चित</w>
यूना नी</w>
फो कस</w>
फु ट
फी ल्ड</w>
फिलीस्त ीन</w>
पंच वर्षीय</w>
थ क</w>
ता की
जो री</w>
छा ती</w>
गोप नीय</w>
कार् ड
कार ी)</w>
क़ौ ल</w>
क़ ब्रों</w>
क ण</w>
आ धारी</w>
i al</w>
200 0-
े गी</w>
संगण ित</w>
ष ंगी</w>
व्य ति
लू र</w>
ली करण</w>
ल हर</w>
म्ब िया</w>
फु ट</w>
फि न
फ़ं क्शन</w>
पुनरा वृत्ति</w>
पहा ड़ियों</w>
ना जु
धर् म,</w>
दि न-
डिवा इस</w>
झु का</w>
झ लक</w>
जैसे- जैसे</w>
ज ब्
खो ख
कि र्
ऋ-ऊण्श्छ्ष्- य</w>
अर् जी</w>
सत त्</w>
संग ति</w>
शुभ- सूचना</w>
शर ण
वि नियमित</w>
वा ड़</w>
लि पि
ल ड़ी</w>
रह ेंगे,</w>
रत् न</w>
मा द</w>
मल् टी
मंड लों</w>
मंज़ि ले</w>
बां ध
पे पर</w>
परि वी
नो बेल</w>
नो टों</w>
निर् दोष</w>
द् दा
था ः</w>
चौ था</w>
खा ल</w>
के लिए</w>
उपन्या सों</w>
उन से)</w>
अभयार ण्य</w>
अ संख्य</w>
अ यो
ic en
200 6
(अच्छ े)</w>
( सख्त)</w>
( रसूल</w>
( या
( तुम्हारी</w>
' वही
्र ी
सम ै
श ि</w>
श स्त्र</w>
वि न्
वर्गा कार</w>
रख ें.</w>
बा ला</w>
पत ली</w>
पढ़ े</w>
निम्न तर</w>
दे शिक</w>
दा ब</w>
ग ियों</w>
खुश हाली</w>
ख डे</w>
कार्यवाह ियों</w>
एम सी
अंधे रे</w>
à¤ à¤
m in
हू ं.</w>
सिलसि ले</w>
श ार
विषय वस्तु</w>
मा ई
म यी</w>
फं क्शन</w>
प्रेम चंद</w>
प्राय :</w>
प्रबंध न,</w>
प्रत्यु त्तर</w>
नियो क्ता</w>
दु रुप
ट्रा ंस
ट नी</w>
जा ती।</w>
चम त्कार</w>
कार्य शील</w>
इन् त
आत् म</w>
अभियो ग</w>
k e</w>
f )</w>
d a
( R
हा ई
स्त ू
सा पेक्ष</w>
सला मती</w>
सम या
सं कल
श कु
विष य-
ल श
ल यी</w>
मूर्ति कला</w>
भाग ने</w>
ब् ध</w>
ब ख़्
फ़ )</w>
फ ,</w>
जाए गी.</w>
चार् ज</w>
ख्या ति</w>
क् ट
केन् ‍
उप गत</w>
आतंक वादियों</w>
आ फ
अभि नेता</w>
अन् ‍य</w>
ो त्तर</w>
सवा ं</w>
सम् मुख</w>
वाह नों</w>
मुद्र क</w>
महि मा
मत दाता</w>
बा लि
नर् इ</w>
ड़ ,</w>
छु पा</w>
गो चर</w>
गर म</w>
काम गारों</w>
उपयो क्ता
उत्पाद न,</w>
अनुप स्थिति</w>
à¤ ¿</w>
e i
7 2</w>
हो ं.</w>
स्व रूप,</w>
साथ )</w>
स को</w>
वि तर
ले .</w>
रू नी</w>
र स
य /
म्ब ित</w>
मै थुन</w>
मिला न</w>
परि पा
प वन</w>
नैति कता</w>
निय र</w>
न ार्थ</w>
न न्द</w>
दुर् भाग्य</w>
ति ।</w>
चु अल</w>
खा का</w>
कै ल्
का .</w>
क बी
क तार</w>
आन् तरिक</w>
आनं द
i c</w>
Anjut a</w>
. 10
" "</w>
१ ३
ह र्ष</w>
सू त्रों</w>
सु हा
सद् भावना</w>
स घन</w>
वाराण सी</w>
वशी भूत</w>
लौ ह</w>
रो बो
म् ‍
म री</w>
बेल ार
पर -
प ता
निक ला</w>
नि वल</w>
दर्श ी,</w>
तू न</w>
ताल मेल</w>
चौ थी</w>
चाहिए ?</w>
किस् मों</w>
काय दा</w>
इन् ते
आस्त ियां</w>
आ पात
से तु</w>
सांख्य िकी</w>
समा विष्ट</w>
श्र ृंख
मु वा
महारा ज</w>
प्रा तः
प्रतियोगि ता-
परि ष्कृत</w>
निका सी</w>
द्र व्य</w>
द फा</w>
जाएगा ;</w>
जा नेवाली</w>
ज़ा त</w>
च ोर</w>
कु ट</w>
का बा</w>
क़ ्या</w>
एजे न्
आ देश
आ क्रम
translat e</w>
S t
3 7</w>
( L)</w>
" {0}
से क्स</w>
सू खा</w>
सीख ना</w>
सा !</w>
समि तियां</w>
ल /
र हीं</w>
य कता</w>
मुताबि क़</w>
मानदंड ों</w>
बाग वानी</w>
ब कर
प्र क्र
पॉप अप</w>
पहुँच ती</w>
न हर</w>
ट िया</w>
चो टी</w>
गु ल
ग ए
खर गो
काल्प निक</w>
क ऋ-ऊण्श्छ्ष्-
उजा गर</w>
इना यत</w>
आतं क</w>
अख बार</w>
g e
Th e</w>
P RO
NAM E</w>
स् कं
सि ग
शै तानों</w>
ले टर</w>
रो म</w>
रि सर्च</w>
महफू ज़</w>
बह रे</w>
फी ट</w>
प्रेम चन्द</w>
परिवर्त नीय</w>
परि माण</w>
पड़ ी।</w>
न ,
ड्र ग्स</w>
ट्रि ब्यू
चि रा
च लाई</w>
क् चर</w>
t er</w>
lo c
ke y
"{0} "</w>
ह ता
श् क</w>
श व</w>
श त</w>
व्य ू
वु ड</w>
वाम पंथी</w>
वा )</w>
ला नेवालों</w>
राइ ड</w>
यूआर एल</w>
मरत बा</w>
बार ,</w>
बन ारस</w>
प्रा योगिक</w>
प्रति बि
पौ धा</w>
पास पोर्ट</w>
निक लना</w>
दे गी।</w>
ड ने</w>
जम्मू- कश्मीर</w>
का श
उपयोग कर्ताओं</w>
उन् मुख</w>
अवस्था ओं</w>
अ ज्ञान</w>
a tion</w>
LDA P</w>
5 6</w>
सूच ना
सी खा</w>
सं क्रामक</w>
सं कलित</w>
श ियन</w>
विशा ल
विचार ण</w>
लड़ ा
य ्या</w>
महत् ‍
मंत्रा लयों</w>
मंग ो
म रू
बद लकर</w>
फी ड</w>
प्रोग्रा मिंग</w>
पारि स्थिति
निर्दे शन</w>
देख ें।</w>
दुनिया वी</w>
जाय ज़</w>
ज़ ै
चौ थे</w>
ग ला</w>
कोवि ड-
इ क़रार</w>
7 0
( पैग़म्बर)</w>
स्ट्री म</w>
सर्व ज्ञ,</w>
रे ड</w>
रब ,</w>
या स</w>
ब्राह् म
ब्रह् मा</w>
ब् लै
बन् दा</w>
पेश कश</w>
दे नेवाले</w>
दि वा
तब ली
णि का</w>
जे ब</w>
छो ड</w>
घ ी</w>
आश्व स्त</w>
आर टी
अपना ना</w>
अ स्पष्ट</w>
à¤® à¥à¤</w>
ma il
en t</w>
U C
है ?
साइ किल</w>
सा ख</w>
सशक् तीकरण</w>
समारो हों</w>
ल् ‍
री सेट</w>
रा क्ष
ब ला
पोर् ट
पैग़ा म</w>
पक ड़
दुश मन</w>
त्रि पुरा</w>
त ों,</w>
डी ए
ट्र ो</w>
गां व
ग़ ज़ब</w>
कठ ो
कं धे</w>
क पास</w>
ऊ ंट</w>
अंतर् निहित</w>
s c
( मुसलमानों</w>
� \</w>
” ,</w>
१ ४
स्पष्टीकरण. –इस</w>
स् वर्गीय</w>
सु सज्जित</w>
वि नियमों</w>
वि ंग</w>
रं ज</w>
बै टरी</w>
बर कत
पड़ ना</w>
नहीं ।"</w>
नवी करणीय</w>
धर् म-
दी वा
दिख ने</w>
थो क</w>
जी ना</w>
ज ला</w>
गैर- सरकारी</w>
खतर ों</w>
शु क्री</w>
शु एब</w>
व्यं जन</w>
रि हा</w>
मुशरि कों</w>
पुन :</w>
पाश्चा त्य</w>
प िय
ना भि
ता ना
डिज़ा इन</w>
ज़ी लत</w>
गा यन</w>
ख़ ते
क्रि स्ट
आव ंटन</w>
आ ओ,</w>
अंतर् ग
4 2</w>
( पैग़म्बर</w>
( तौरे
'वही '</w>
हिमन द</w>
स्क्र ॉल</w>
सब्ज ियों</w>
वर् त</w>
वका लत</w>
व ारे</w>
व क्
लि .</w>
रो जे</w>
राज े
मिथ ्या</w>
म .</w>
बचा या</w>
प्रथा ओं</w>
प् ट</w>
पह ले)</w>
निदेश क,</w>
दुरुप योग</w>
डा लकर</w>
जाँच ें</w>
गर् द
खु दरा</w>
क हें</w>
क तरा
उन्‍ होंने</w>
आ लेख
o w</w>
Ser v
. 12
िया ँ,</w>
हृ दय
स्क्र ी
सूक्ष् म,</w>
सी ए
सांख्य ि
संके तों</w>
व्यापार ियों</w>
विधान मंडल</w>
लिख त</w>
लि केशन</w>
रोक ना</w>
म्र ता</w>
भव नों</w>
पूँ जी</w>
न् दन</w>
निर् धन</w>
दू -
ड रो
छि ड़
चिकित् सीय</w>
घु स</w>
गु जर</w>
खो ज
कार् मिकों</w>
क स्ट
औचि त्य</w>
उद्यो ग,</w>
अफ्री की</w>
8 5</w>
6 4</w>
4 4</w>
( कोई</w>
िया द</w>
हु ज्
स् वर्ण
वाद-वि वाद</w>
रो धक</w>
यु ग
मे वे</w>
मी म</w>
भू कंप</w>
बंध नों</w>
ब हर
प्रति रक्षा</w>
पु लि
दशा ओं</w>
ठ ंडा</w>
गु च्छ
ग़ ल
गई ं</w>
कर्म चार
औष धीय</w>
अन् ध
अनु मत</w>
अकादे मी</w>
s -
होंग ी,</w>
स्ट ील</w>
सूच ना,</w>
सुपुर् दगी</w>
रा ना</w>
र फ्
बद लती</w>
बद लता</w>
पहुंच े।</w>
प ्यू
प छ
तु च्छ</w>
चला ता</w>
गौ ण</w>
खूब सूरत</w>
खु र
कार्य कर्ताओं</w>
कम् प</w>
इले क्ट्रा
अं कों</w>
अ ज़
a f
U T
सेवानि वृत्ति</w>
सू रा</w>
सां सद</w>
सहे जना</w>
सक ें,</w>
सं दिग्ध</w>
शब्द कोश</w>
श ल्य</w>
वि लंब</w>
मिश् र</w>
भा ई-
भर ण</w>
भट का</w>
बंग ला</w>
फ़ो ल्ड
प्रेर णा
पारम् परिक</w>
पर दे</w>
दा वों</w>
गय े,</w>
ख़ ून</w>
कोविड- 19</w>
को %</w>
क टा
अल् पा
अंतर् वस्तु</w>
अ मि
en c
197 6</w>
१ १</w>
िय ों/
सामंज स्य</w>
शो थ,</w>
प्रा प्य</w>
दे ं.</w>
दु आ
ती क्ष्
डा ,</w>
ट्रै किंग</w>
घु टनों</w>
क् ली
क पि
ऑ फिस</w>
उद य
अप ार
अकाद मिक</w>
r an
IMA P</w>
6 ,
स्वा दिष्ट</w>
सिंगा पुर</w>
साफ -
ष ड्य
श्री कृष्ण</w>
ला ये</w>
रजि स्ट्री
रख ेगा</w>
या कू
मो ल</w>
मा दक</w>
मस्ति ष्
भय भीत</w>
बह का</w>
प्रशा ंत</w>
प्र वेश
पूर् णा
पत् तों</w>
निर् जीव</w>
ना ल</w>
ना मा</w>
न City</w>
तारी फ</w>
ता ;</w>
ट ।</w>
जे म्स</w>
चिकित् सा
च कित</w>
खिड़ की</w>
क्ष ु</w>
कोशि का
कृषि -
काउ ं
अनिवार्य तः</w>
le c
e n</w>
197 1</w>
िया ँ
िय े
स्था वर</w>
शास न
वस्तु एँ</w>
भग व
ब् ति
बी एस
बि र
प्रच लन</w>
पा बन्द</w>
नी ला</w>
ना मे</w>
ना फरमानी</w>
जाएँ गी</w>
जन गणना</w>
एन एस
इस्ला मिक</w>
अवहे लना</w>
à¤ 
indo w
ed )</w>
4 3</w>
२०० ८</w>
़ ु
हो म
सौन् दर्य</w>
सु लै
ल ेंस</w>
ल यों/
मा ईल</w>
बना म</w>
प्र स्थान</w>
पी एस
पा त्रता</w>
परिप्रे क्ष्य</w>
प ति
नृ त्य
नि भा</w>
दे नेवाली</w>
था ।"</w>
ड्राइ वर</w>
गया )</w>
क्र ो</w>
कु ला
औ रों</w>
उखा ड़</w>
अभि भाव
अध्य क्ष,</w>
w it
un it
ub li
is sion
9 9</w>
9 0
6 00</w>
5 9-
( U)</w>
" नहीं,</w>
हड़ ताल</w>
सं प्रदाय</w>
यूनि कोड</w>
म सल</w>
म जा
बि छा
पॉ ल</w>
पी डिया</w>
पर् दा</w>
नाजु क</w>
ति माही</w>
ग् वा
खु राक</w>
ख ारिज</w>
करो ड़ों</w>
कच रे</w>
क शे
एल्गोरिथ् म</w>
अनु शं
अध्य क्ष
अ ण्
PO P</w>
Ch rom
(v i)</w>
स्ट न</w>
स्कू ली</w>
सो र्
साझी दारों</w>
सं श्ले
शिष्ट मंडल</w>
शा न्त</w>
वि फलता</w>
रे ब</w>
ब क</w>
फ़ाइल %</w>
पी ले</w>
दर्शा ने</w>
दर ें</w>
ण ि</w>
डिजी टल</w>
जोड़ ता</w>
जुर् माना</w>
खो लना</w>
ख़िला फ</w>
कि रण</w>
कि र</w>
क़ुर बानी</w>
अम् र</w>
अनुमत ियाँ</w>
ou r
4 ,</w>
/ L
.0 3
(आ ज्ञा
हे ल्
विध वा</w>
वगै रह</w>
व िया</w>
ल सी
र्र ा</w>
रा जीव</w>
मेगा वाट</w>
बुरा इ
बुद्धि मान</w>
बढा वा</w>
पी ते</w>
पार्श् व</w>
न्‍ द्र</w>
नी च
निय मा
झ ं
गा त्मक</w>
कुर् सी</w>
क़ र्
ऑपरे टिंग</w>
अंतर् विष्ट</w>
li st
g e</w>
88 59-
) )</w>
हु ल</w>
हि ला</w>
स् पि
सी ट</w>
शै व</w>
विरो धा
लिप ियों</w>
ल ि</w>
य मान</w>
मि सा
भाग्य शाली</w>
धर् मा
देश ीय</w>
तार् किक</w>
ढ़ ने</w>
ड ॉ</w>
टो कन</w>
जा ते।</w>
जम ारा
कार्य कर्ता</w>
आई डी
er m
S M
" फिर</w>
स्ट र्
शुभार ंभ</w>
ल ार्ड</w>
रूपां तरित</w>
र ीन</w>
बैंक कारी</w>
बढा ने</w>
प्र मा
परि धि</w>
परं तुक</w>
पड़ो स</w>
निर्देश क</w>
नि रे</w>
नर सिं
देख ती</w>
ढूँ ढ
टे नर</w>
टा टा</w>
जुटा ने</w>
जीव नी</w>
घ् न</w>
गि री</w>
उपा ध्यक्ष</w>
आवि ष्कार</w>
à¤² à¥à¤
o M</w>
( मे
( मक्का)</w>
( न</w>
( ऐसा</w>
( B
# 39
ू द</w>
ह ंस
सं क्रमित</w>
श्र व्य</w>
वि दों</w>
ल ः</w>
मौजू द)</w>
मै नु
मै दानों</w>
बाधा ओं</w>
बा ब
ब सा
फि रत</w>
फरमा ए</w>
प्रतिष्ठा न</w>
पुस्‍त कालय</w>
दा ल</w>
दर ,</w>
तर फ)</w>
डे न
जोर दार</w>
जै व-
जा वा</w>
क़ौ मे</w>
क़ू वत</w>
क़रा बत
ई ः</w>
आखे रत</w>
अपना ए</w>
अं चल</w>
अ दायगी</w>
D V
(ग़र ज़)</w>
( क्यों</w>
स्पे न</w>
सुन ो</w>
सम् बंधित</w>
रोज़ गार</w>
रण नीतिक</w>
र ।</w>
मान )</w>
भिन् नता</w>
ब ीन</w>
प्रत्य े
पै न</w>
धूम्र पान</w>
थ ियो
ज नित</w>
गर् भाव
गई ं।</w>
ग ड्
क्रिया शील</w>
कॉ पी
के न</w>
करवा या</w>
आकां क्षा</w>
अह सास</w>
s ec
U n
4 9</w>
15 0
( संशोधन)</w>
( e)</w>
( 195
हैं ,
हि फा
हक़ दार</w>
वर न</w>
ला ए,</w>
राज्यपा लों</w>
य ण
मान सून</w>
म ठ</w>
प दो
न य
दो स्तों</w>
दृश्य ों</w>
चा लय</w>
कृ त्य</w>
कर् सर</w>
करा धान</w>
ईमान दार
अध ो
अ समर्थित</w>
s %</w>
d %</w>
3 9</w>
स्व -
सम् मत</w>
श् ‍
वा हा
महा देवी</w>
मना ही</w>
बांग् ला</w>
पी ना</w>
पा वन</w>
पर .</w>
तु ल्य</w>
जो कि</w>
ज नी</w>
गी ?</w>
ऑस्ट्रे लिया</w>
इंटर नेशनल</w>
अव रोध</w>
अधि रो
अं धे</w>
d s</w>
E L
.0 7
( ऐ
सू खी</w>
सन् दर्भ</w>
शु क्रा
विश्व व्यापी</w>
वा दन</w>
यु व
मू त्र</w>
मार ो</w>
प्रति भागियों</w>
प् लो
प् ले</w>
परे श</w>
पर मिट</w>
नि क्षे
द ण्ड
तंत्रि का
ण् डे
छ ड़ी</w>
चै ट</w>
चार् ट</w>
गोला कार</w>
गा था</w>
ग नोम</w>
काला वधि</w>
एक् ट</w>
अन न्य</w>
L icen
.201 2</w>
.0 6
सॉफ़् टवेयर</w>
से वकों</w>
सुना ते</w>
सिं ध</w>
समाना ंतर</w>
समाज वाद</w>
सब्सि डी</w>
स पनों</w>
ला ठी</w>
मनुष ्य
भूमि गत</w>
बी सी</w>
बढ़ो तरी</w>
बड़े- बड़े</w>
पाठ ्य</w>
प कों</w>
नु त्
निवे शों</w>
नव ो
तु ल</w>
ताकी द</w>
ड रे</w>
जिन् ना</w>
ज ारी
ग्री न
गी र</w>
क़ ो</w>
क ियाँ</w>
इकाइ यां</w>
इं सान</w>
आव ंट
अम् ल</w>
अ स्वीकृत</w>
हृ द
वि नियामक</w>
ले गें</w>
या पन</w>
म च्छ
बॉ ल</w>
बता ई</w>
परि पथ</w>
प िया</w>
निया ई</w>
दाहि नी</w>
थ ्य</w>
ण् डि
ढा ंचा
टी के</w>
जोड़ कर</w>
चा व
चढ़ ा</w>
क़ द्र</w>
कड़ ियाँ</w>
कट्टर पंथी</w>
एनआई ओएस</w>
एक क</w>
आय ,</w>
अ स्थाई</w>
अ भूतपूर्व</w>
8 ,
साम्राज्य वाद</w>
संस् करण
स कर</w>
व न्य
लोक ल</w>
लाज़ि म</w>
या ;</w>
भर त
ब ग
फ़ाय दा</w>
फ़ ते
प्राधि कारियों</w>
प न,</w>
न् तरित</w>
नि ब
ड़ गि
चिन् ता</w>
चि त्
चढ़ ाई</w>
खा न
कहा नियां</w>
क तरा</w>
इजरा य
आ जीवन</w>
à¤² à¤¿à¤
197 0</w>
ि त,</w>
ह नुमान</w>
सै र</w>
सुरक्षा ,</w>
सां विधिक</w>
शा सकीय</w>
रिश् तों</w>
रि टर्न</w>
राज दूत</w>
रा ह
या -
मो टा</w>
भू षण</w>
भी षण</w>
बिल् ड</w>
बा याँ</w>
बा ते</w>
प्रो द्
पै रा</w>
पश्चात् वर्ती</w>
पत् य</w>
प )</w>
नि चली</w>
धारणा ओं</w>
ती र्थ</w>
ति ल
ता वादी</w>
जिन् होने</w>
छोड़ ो</w>
चुनौ तियां</w>
ग्रे ट</w>
गि ड़गि
खै र,</w>
क् स,</w>
ए ना
ए के
आभा स</w>
आ शीर्
à¤à¥ </w>
19 30</w>
(पी डीएफ</w>
हो ने)</w>
हिन्दु स्ता
सर्व ज्ञ</w>
शो भा</w>
शे ष
विशि ष्टता</w>
यू .</w>
प्रातः काल</w>
न्न ति</w>
धा तु
दीर्घ ा</w>
ण् ट</w>
ढ लान</w>
ठ न्
छि द्र
ख ार
क सम</w>
एं टी
अलं कृत</w>
अख बारों</w>
o w
( इन
हैं ड
ह वाओं</w>
ह !</w>
साह ा</w>
सा ध्य</w>
श ियम</w>
लोक प्रियता</w>
लंब वत</w>
ल ं</w>
रजिस्ट्री कृत</w>
यूनि टों</w>
मो टर
मै ं
मु ज
बु लाने</w>
ब रे</w>
पूछ ें</w>
पा एँगे</w>
नक् शे</w>
दुर् ग</w>
तो ड़ने</w>
जा तियां</w>
ज िया</w>
गुप् त
गय े.</w>
कै म्
करु णा</w>
आ इ</w>
अव धारण</w>
अर् ध</w>
f ic
5 %</w>
( फ़रिश्
#39 ;</w>
है )।</w>
सं तोषजनक</w>
शुरु आती</w>
वे ,</w>
मुम किन</w>
मु बार
म ग
त वा
टेक् स्ट</w>
जमी नी</w>
चि ड़
गो पाल</w>
गिर ि</w>
ग़ ्
गवा हों</w>
ग ार्ड</w>
u .</w>
pro vinc
C al
4 6</w>
( P
है !"</w>
सी रिया</w>
विमान क्षेत्र</w>
वि घटन</w>
लॉ र्ड</w>
य ित</w>
मूर् ख</w>
प्रो फाइल</w>
प्रयोग शालाओं</w>
प् टर</w>
परी क्षा
पंचाय तों</w>
निर्देशा ंक</w>
निकट ता</w>
दा दी</w>
दह ला</w>
डी ए</w>
टि विटी</w>
चुन ेंः</w>
घा ना</w>
खा या</w>
क्री ड़ा</w>
क्यो कि</w>
क्य ो</w>
का ली
करा ती</w>
क ले
ए सि
उप चार
Y ou</w>
197 2</w>
(अच्छ ा)</w>
( लौ
हू द</w>
ह ॆ
स्व तन्
स्को प</w>
सुलै मान</w>
सुलझा ने</w>
संस् कृतियों</w>
संभा लने</w>
संघ र्ष
विजे ट</w>
विंडो ज़</w>
ल ड़े</w>
मन् दिर</w>
मंत्रि -
म ण्ड
फ ली</w>
प्रति स्थापित</w>
प्रक्षे पण</w>
पर्व तों</w>
नि हा
ना शुक्र
ना गर</w>
नगर पालिका</w>
त्रुटि .</w>
तै नात</w>
ति रस्
डे यरी</w>
डिरे क्ट्री</w>
छो टा
क्ष ो
एन आर
आईसी टी</w>
आ राम
अल गा
अभि करण</w>
L IN
7 ,
2 /
( धर्म)</w>
" .</w>
े ?</w>
ु न</w>
हा नी</w>
स्था निक</w>
सी सी
सम् ‍
श् लोकों</w>
वृ द्धा
व बाल</w>
ला त</w>
लम् ब</w>
लगा व</w>
राशि ।</w>
यथा संभव</w>
भाव ना
बरा बरी</w>
फ्र ी</w>
पे य
पुकार ो</w>
परिपक् व</w>
पड़ो सियों</w>
दी वार
ठहरा व</w>
जान नेवाला</w>
छ ं
ग्र ै
गा हें</w>
करे गा
क क्षों</w>
इ फ़
आ गं
m on
MA PI</w>
( I
श ें</w>
वि ल्
वास्त े)</w>
वा न,</w>
व रा</w>
ली .</w>
रि टी</w>
रह ूँ
याकू ब</w>
मेज बान</w>
मुश रिक</w>
मु क</w>
बाद शा
पीड़ क</w>
नी ले</w>
निषे ध</w>
ना शुक्री</w>
ना ती</w>
न ?</w>
दू ता
तुझ पर</w>
तत् समय</w>
डीपी आई</w>
टि फि
झु के</w>
जु ड़
जिबरी ल</w>
जान नेवाला,</w>
जहन् न
गु नेह
क् ल</w>
करो ।"</w>
उ कसा
अभि लाभ
अ चल</w>
O- 8859-
C oun
4 1</w>
3 3
.0 4
(कु रान)</w>
(उस का)</w>
( हरगिज़</w>
( O)</w>
स्‍ व
शॉर्ट कट</w>
वि हीन</w>
वाजि ब</w>
वा हिक</w>
लश् कर</w>
भा स</w>
फ्ट वे
फर् श</w>
पहुँचा या</w>
थ र</w>
तथा कथित</w>
ण कारी</w>
ट्रो ल</w>
जो ध
जि नी</w>
चा हा
गुस् से</w>
ग पश
कु ल्
का ए</w>
ऊँ ट</w>
ई र्ष
bu t</w>
N ew</w>
5 ,</w>
196 1</w>
( चाहे</w>
‍ दी</w>
सीमा ंत</w>
स ती
वे ल्
विश्व युद्ध</w>
लब् ध</w>
ल न,</w>
राष्ट्री यता</w>
बक् सा</w>
प्रशं सनीय</w>
न् दर</w>
निय ति</w>
निकट वर्ती</w>
नफ रत</w>
धै र्य
दु रा
दर्शा ते</w>
द ना</w>
थ म</w>
ज्ञा नी</w>
जान -
चे हरों</w>
कार् टू
का बू</w>
क़ ों</w>
आ जि
अल्प संख्यक</w>
अपरि हार्य</w>
अन देखा</w>
---- ----
़ ्
से फ</w>
सु प्री
सी मेंट</w>
सि लि
शे खर</w>
शा यर</w>
व्या प
वी र्य</w>
ल कीर</w>
ल .</w>
रुप या</w>
रि ट</w>
म् म
मो नो
म न)</w>
बू ट</w>
प्रा माणिक</w>
ध्या य</w>
द राज</w>
टी का
ज्ञा न-
जी ते</w>
छु ट्
चौ धरी</w>
चिन् हों</w>
कु त्ते</w>
क़ै द</w>
ए ल)</w>
इ ब्रा
unit -
१ ४</w>
सके गी।</w>
शा सी</w>
वि श
वि राज
लिय े,</w>
लाइस ें
रि कॉर्
र ती</w>
मर ना</w>
म न-
भ्र मित</w>
बु लाता</w>
बा हर
न्यूय ार्क</w>
ने वि
निर स्त</w>
त्व ,</w>
ता लीम</w>
त ले</w>
जोड़ ते</w>
छि द्र</w>
चढ़ कर</w>
च ह
क्त ता</w>
कार् ब
कर -
उत्तरा खंड</w>
उ भार</w>
अना वश्यक</w>
b r
H EA
201 3)</w>
( ओ
लो ं)</w>
यात्रा ओं</w>
य े,</w>
मोह ब्
मुझ पर</w>
मु म्बई</w>
मज़ हब</w>
भा ज
बस्त ियाँ</w>
बं दर</w>
फु फ्
प्रच ंड</w>
पर !</w>
पक् की</w>
ने के</w>
निवे दित</w>
नाट क
न लि
दु र
थे ;</w>
ति करण</w>
तारी ख़</w>
ठ ित</w>
ट .</w>
जोड़ ें...</w>
जा ं
ग ज</w>
ख्वा ब</w>
एफ )</w>
अव क्ष
t ex
es crip
198 5</w>
197 4</w>
190 8</w>
( यह</w>
हुज् जत</w>
स् की</w>
सि मु
साथ ियों,</w>
सक्र ियता</w>
वाजपे यी</w>
वर् सन</w>
योग- समन्वय</w>
मिया द</w>
बी -
बा ला
फते ह</w>
पाठ्य क्रमों</w>
पछ ता
निर पे
नाइ ट</w>
न कारी</w>
धु री</w>
दो हन</w>
ढ क</w>
टेली विजन</w>
जाये गा.</w>
गी )</w>
ग़ म</w>
क्ला स</w>
कु न्
कार्य भार</w>
कर् स</w>
इन् स</w>
अ पर</w>
अ निश्चित</w>
अ नाथ</w>
- इन</w>
, श्री</w>
हा शिया</w>
स नी</w>
विफल .</w>
विज यी</w>
ले पन</w>
लि श</w>
लगा ये</w>
रहे गा,</w>
य र,</w>
मिटा या</w>
फ़ि ल्म</w>
पार े
परामर् श
न बी
ख़ राब</w>
कार् मिक</w>
क़ाबि ले</w>
करूँ गा</w>
क ंग
आशीर् वाद</w>
अश् लील</w>
अभि लाभों</w>
हड् डियाँ</w>
स् या</w>
सै द्धा
साम रिक</w>
सा झे</w>
सहि त,</w>
शु द्ध
वि देश
व नी</w>
रो ल</w>
रसो ई</w>
फ्रां सीसी</w>
फे रा</w>
फ ्यू
फ न</w>
प्र बन्धन</w>
प मेंट</w>
नाट क,</w>
नब ियों</w>
दो हरे</w>
तारा मंडल</w>
ड ूब</w>
ज ्यों</w>
ग्री वा</w>
ग्यार ह</w>
गपश प</w>
इमार तों</w>
आ दर
अल्ला ह)</w>
अके ली</w>
ou t</w>
i l</w>
e :</w>
0 )</w>
" ये</w>
हू र</w>
हम ी</w>
साह सिक</w>
सार ,</w>
सह सा</w>
समझ कर</w>
सक ें.</w>
स तर्क</w>
शं काओं</w>
श ियों</w>
ली जिए</w>
लय ित</w>
रिया यत</w>
युसु फ़</w>
या ंत्रिक</w>
म का
बी जों</w>
बा पू</w>
फुफ् फु
फ़ॉ न्
फ़ -
प्रा क्
पि का</w>
नि स्प
तर जी
ट्रे न</w>
झग ड़ने</w>
चौ दह</w>
घ ड़</w>
औष ध</w>
ऊर् जा,</w>
उभर ते</w>
उ ष्
आव धिक</w>
अनुसं धान
ं गार</w>
5 2</w>
( त
सी आई
सामाजि क,</w>
समा धि</w>
सब ने</w>
सब -
वी णा</w>
व ध</w>
रो ं
मे टा
मनो वैज्ञानिक</w>
भ ि</w>
फ़ ौ
पेश े</w>
पेश वा</w>
पं च</w>
ना थ
ध् वा
ता लों</w>
त लि
डेल् टा</w>
ग ूँ
कोशि काएं</w>
कु ँ
की मती</w>
एफ सी</w>
इन् टर
अधिका ंश
अंदा ज</w>
A S
( सा
स्पे स</w>
सजा वटी</w>
स ’</w>
शिवि र</w>
विधि वत</w>
व ारा</w>
रो ज़ा</w>
बर् निंग</w>
पूछ ने</w>
पु ष्ट</w>
पल टकर</w>
नाइ ट्रो
नं दन</w>
दह कती</w>
थ लग</w>
ढूं ढ</w>
डे लि
डब् ल्यू</w>
ट ह
ज़बरद स्ती</w>
चौ ड़ा</w>
कि ंग
ओडि शा</w>
आ रेख
ं चे
re e</w>
p la
or t</w>
b )</w>
:/ /
( एम
" मुझे</w>
हा जि
ह मास</w>
सेक ंड</w>
सा हे
सहा य</w>
संर क्षण
शही द</w>
विभाग ीय</w>
लम् बा</w>
राष्ट्री य
रहे गें</w>
र घु
मूल क</w>
महा वीर</w>
म रु
म ग्न</w>
बंध ु
पहचान ने</w>
पत्र ा
निवे दिता</w>
न :</w>
दू षित</w>
दि क्
जा ता,</w>
के बल</w>
कार गुज़
कवि ता
ं प</w>
k a
i g
Chrom e</w>
1 %</w>
( रो
१९ ४
ह त्या
स्वीकार ें</w>
से ज</w>
सूच नाएं</w>
सुप्री म</w>
साम्रा ज़
शि थि
विरा ट्</w>
व ह,</w>
रख नी</w>
मो र</w>
मि न्
भाव नात्मक</w>
बेलार ूस</w>
बच ना</w>
ब लता</w>
पहचान ते</w>
निहा यत</w>
द ख
तत् पर</w>
टि ड्
टकरा व</w>
ज़ि ल्लत</w>
गै र
को र
कि स्तान</w>
उदा सी
@it em
हे म
हम् द</w>
समामे लन</w>
सं स्थापन</w>
शक्ति ,</w>
श त
विश्व स
व फा
लें ...</w>
योग ,</w>
म '</w>
बहु धा</w>
फरमा ता</w>
फर मा</w>
पृथ क्</w>
पड़ े)</w>
ने /
निके तन</w>
न क्ष
दुरु स्त</w>
ता ला</w>
छात्र वृत्ति</w>
चाँ दी</w>
कु दर
किराये दार</w>
एम )</w>
अवि भक्त</w>
अद्य त
अत्या धिक</w>
अ विश्वास</w>
D .</w>
7 7</w>
( समझ</w>
% .</w>
हार् ड</w>
सवे रे</w>
स .</w>
श् चि
शिक्षा -
श न)</w>
वै धता</w>
वे दा
वाक्या ंश</w>
लु त्
लि फा
र् ग</w>
रा ख</w>
मो र
मु अय्य
मी म॰</w>
मण ि</w>
मछ लियों</w>
बी जा
बढ़ा ते</w>
पुनरी क्षण</w>
पर वर्ती</w>
निष् का
ना फर
नवा ब</w>
नगर ीय</w>
दे ।"</w>
दि ग्
तूफा न</w>
ढो ल</w>
झुठ लाए</w>
ज़ कर
जहन्न म)</w>
चौ ड़ी</w>
घो ड़ों</w>
गे -
गुनाह गारों</w>
गन् दगी</w>
ख्ते ला
खौ लता</w>
को ।</w>
उ ग्र</w>
ईमान वाली</w>
इफ़ तेरा</w>
अ दृश्य</w>
a a</w>
.0 2
(दो नों)</w>
(अप ने)</w>
( बल्कि)</w>
( जहन्नम)</w>
( ईमान</w>
हो नेवाले</w>
सौं पे</w>
समझा या</w>
व्य ू</w>
विधान- मंडल</w>
ल्य ु
यूनिवर् सिटी</w>
य दु
भो पाल</w>
बता ओ</w>
प्ले यर</w>
पालि सी</w>
पर्य वे
परियोज ना
निरी क्षक</w>
देख िए</w>
दु हरा
त्‍ मक</w>
त्यौ हार</w>
ता भ</w>
जान ें</w>
गृ हीत</w>
गु वाहा
गु ज़ार</w>
खे ला</w>
का टें</w>
का ट
कवि ताएं</w>
उप निवेश
इलेक्ट्रॉ निक्स</w>
इंड िया,</w>
इ र्
आवंट ित</w>
आय ताकार</w>
आई आई
अ संगत</w>
à¤ 
स्वे च्छा</w>
स्ट्र ि
सम् मान
शि श</w>
वि हार</w>
ल क्
रे ज</w>
मा उन्
बख् त</w>
फ ट
प्रोद् भूत</w>
प्रश स्त</w>
प्रति कर</w>
पूछ ना</w>
दीर्घ कालीन</w>
ड ी,</w>
ज ौ
घ नी</w>
और ंग
एक्स प्रेस</w>
उप राष्ट्रपति</w>
उ दर</w>
à¤¹ à¥
at eg
9 5</w>
2 50</w>
12 -
, )</w>
स् यों</w>
शर् म
व्य क़्ति</w>
विधेय कों</w>
व ने
राष्‍ट्र ीय</w>
रक म,</w>
यू रे
मे व</w>
भाग ,</w>
बै च</w>
पा षाण</w>
पा एगा</w>
पर्व तमा
नाइ टेड</w>
दी की</w>
दार )</w>
तरजी ह</w>
ढ ी</w>
जे ने
जमान त</w>
छ ंद</w>
चाह ेगा</w>
चा ,</w>
ग्र ता</w>
उद् गम</w>
उतार -
इंडो नेश
आइ ए,</w>
अधिकार ी
n e
N ame
(2 3
( ख
सौहार् द</w>
सी वी
स राय</w>
शै ल</w>
वि ए
व स्था
मान द</w>
महि मा</w>
म थु
बा ण</w>
बल ि</w>
प्रस्तु तीकरण</w>
पै ड</w>
नी कृत</w>
निक लकर</w>
दे वे
दार ियों</w>
कुंजी पटल</w>
ऑक् साइड</w>
एक् स-
उपा स्य</w>
उत्ते जना</w>
à¤ ¶
leas e</w>
l u
196 0</w>
0 5
( o)</w>
$ {
ी त</w>
हो ते,</w>
सेटि ंग्स</w>
समझौ तों</w>
सं प्रतीक</w>
वृ ंदा
विभिन् ‍न</w>
ल ियो
रे गा</w>
रूप ए</w>
मेहर अली</w>
मांस पेशियों</w>
मा ंगों</w>
बता ती</w>
नि वि
नि चला</w>
नाना लाल</w>
धर् व</w>
ध ू</w>
द् धार</w>
जबरद स्त</w>
छ )</w>
घन त्व</w>
घ र-
ख -
क़ दर</w>
कं द</w>
आ पात</w>
अ ड़
ं गा।</w>
t on</w>
st ate</w>
men t
le x
O M
( जिस</w>
ू ँ</w>
होगा ।"</w>
हो ना,</w>
ह ृ</w>
स ख़्
वे ज</w>
विकि पीडिया</w>
वा इस
ला र</w>
मौ लाना</w>
मि जो
मि जा
मातृ भूमि</w>
मा ई</w>
भू- भाग</w>
बा घ</w>
बढ़ा ता</w>
प्रा देशिक</w>
प्र वी
पारिस्थिति की</w>
नी ति,</w>
द्वि आधारी</w>
ता त्या</w>
चरि त
चढ़ा व</w>
घटा ने</w>
ग़ लती</w>
करूणा कर
क :</w>
उप नाम</w>
उ थ
ई स</w>
आ ला</w>
आ चार</w>
अनुकू लन</w>
अड् डा</w>
अ ष्ट
a fr
, 000
( E
ॉर् क</w>
ह ॅ
सो शल</w>
सृ जनात्मक</w>
शिशु ओं</w>
विश्वास घात</w>
व )</w>
ल ार
रि फाइन
म्या ं
मार ना</w>
भा गे</w>
बु खार</w>
ब जा</w>
फै लाया</w>
परम्परा गत</w>
निवे शिक</w>
नि ं
नागा लैंड</w>
नहीं !</w>
नसी ब</w>
दी पा
द त्
डी -
डरा ता</w>
झा न</w>
जा हि
चू र्ण</w>
खा ँ
का ंड</w>
करूणाकर EMAIL</w>
कच्च ा</w>
एस एस
एक् से
आरो ग्य</w>
आ एँ
अध्या देश</w>
195 1</w>
0 .</w>
( आर
स्वास्थ ्य,</w>
स्व राज</w>
सि का</w>
स ही
राश ियों</w>
राम कृष्ण</w>
रह ें,</w>
मो हर</w>
मुसी ब
मिटा कर</w>
मा ओं</w>
मंत्रि परिषद</w>
म ं</w>
बो लना</w>
बहि र्
फेर कर</w>
प्र रूप</w>
पर् दे</w>
नि श</w>
नवी करण</w>
दू सरा
तर ंग</w>
त ऋ-ऊण्श्छ्ष्-
ट ु</w>
गो श्त</w>
ग लिय
औ स
ए त
आ क्रामक</w>
translat ed)</w>
m e
afr ica.</w>
1 :</w>
१९ ६
िय ॉँ</w>
स् पं
सेवा ,</w>
सरो जिनी</w>
वि द्</w>
लिय र</w>
लिख कर</w>
राष्ट्र वादी</w>
य ्य
मोह ताज</w>
भ्र ष्ट</w>
भ ती
बहा ने</w>
बता या।</w>
फे रे</w>
प्राप् ‍त</w>
पुरा तन</w>
नव जात</w>
न कर्ता</w>
दि लाता</w>
द ने</w>
तौ ल</w>
डिब ें
ड़ा ।</w>
जि कल</w>
घु टने</w>
गर्भाव स्था</w>
खींच ने</w>
खाद्या न्न</w>
क्य ू</w>
कार्र वा
करू ंगा</w>
ऊर् जा
उच्च ारण</w>
आ नेवाली</w>
अ श्व
अ मूर्त</w>
अ छू
201 7)</w>
2006 -0
0 ,</w>
(ii i
( 7)</w>
१ ८</w>
। ]</w>
सी ई
संख ्य
सं यम</w>
श नि
लू क</w>
ला श</w>
लश कर</w>
मिटा एँ
बेव कू
प्रतिस्पर् धी</w>
परमा त्मा</w>
दे साई</w>
दृष्टि को
चिं घा
च खा</w>
गौ तम</w>
गेंदबा ज</w>
एं .</w>
इंटर फेस</w>
आरो पों</w>
आ लू</w>
अस मानता</w>
अवक्ष यण</w>
अक सर</w>
{ PRO
com )</w>
( घर</w>
सो ल</w>
संवेद नशीलता</w>
शी त</w>
वार् मिंग</w>
वर्ग मूल</w>
रह े)</w>
मिजो रम</w>
बै ल</w>
बे हू
बु जुर्
बा इंड
फाइ लों</w>
फ रा
प्रति पूर्ति</w>
प्र लेखन</w>
ना द</w>
नर्म दा
नरे श</w>
धा त्मक</w>
दु का
दाहि ना</w>
तुल नात्मक</w>
ता ई</w>
ज़ ो</w>
एन कोडिंग</w>
एन ए
अयो ध्या</w>
अमृत सर</w>
अक् ल
@item :</w>
198 1</w>
( पहले</w>
( को
ै स</w>
हि च
सं कुल</w>
शे ल</w>
विशेष तः</w>
वाद्य ों</w>
लो -
माँग ने</w>
मर ते</w>
म रो
बुराइ याँ</w>
ब करी</w>
फु ल्
पहुँच ता</w>
परिवी क्षा
पच्ची स</w>
पक् के</w>
प ठा
नरे न्‍द्र</w>
ध ी,</w>
देश ा</w>
तर ों</w>
तद नु
ड िया
टै ंक</w>
टा ई
चार -
च ले
गि ंग</w>
खे लते</w>
खा ं</w>
कॉ फी</w>
कम रा</w>
अल मस्त</w>
अनुष्ठा न</w>
( हमारे</w>
( में</w>
स्त्र ी-
सह कारिता</w>
सदा बहार</w>
श्ले ष्
शे षों</w>
शख़् स</w>
र वि</w>
भव भूति</w>
बे ज़ार</w>
बहा ना</w>
फि क</w>
प्रौद्योगि कीय</w>
नृ त्‍य</w>
ध ौ
दी पक</w>
द फ्
तृ प्ति</w>
ता ना</w>
ण् डी</w>
चुन ें...</w>
च ियों</w>
कीर् ण
कम जोरी</w>
ऊँ टनी</w>
अलं करण</w>
अने का
अनुकम् पा
अ सह
à¤¨ à¥à¤
tr y</w>
st at
IM E</w>
' {0}
स् ले
साँ स</w>
स स्ती</w>
वर् चुअल</w>
रे ज़ा</w>
यदु नाथ</w>
मौसम ी</w>
मे क</w>
मि ल्
मा इन
महा सभा</w>
बै केंड</w>
बहु पक्षीय</w>
बना कर)</w>
ब ती</w>
प्रतिश त
पे न्
द्य ु
दा याँ</w>
ती र्ण</w>
ग्रा मो
कार्य ,</w>
कार खाने</w>
एप् लिकेशन</w>
अन ौप
st an.</w>
k et
h )</w>
7 4</w>
10 ,000</w>
(व ह)</w>
( यहू
( जी
" -
१९ ३
्य ो
स् ख
सज़ा वार</w>
वि चलित</w>
ल यों,</w>
रो ज़ा)</w>
रू सवाई</w>
राम लिंग</w>
य ब</w>
मो न</w>
मू सा!</w>
मुअय्य न</w>
मु ब्ति
महफू ज़)</w>
म नी
म गर)</w>
भू गोल</w>
भाज पा</w>
बू वत</w>
बर सों</w>
फ़ री
प् लै
पुरा णों</w>
पार् टियों</w>
प डा</w>
नि पु
नि का</w>
ध ृ
तौरे त</w>
तात् विक</w>
ठे के
टू ल</w>
टुक ड़ों</w>
ज़कर िया</w>
छा ल</w>
गें )</w>
ग़ा फिल</w>
को ं/
कारस्ता नियों</w>
कार सा
क छु
उठ कर</w>
उ छ
इस्लाम वादियों</w>
इश ारा</w>
इरा दे</w>
अमेरि कन</w>
ंड ि
à¤µ à¤¿à¤
ri Serv
p a
ex U
exU riServ
Sh ort
D UC
199 4</w>
/L exUriServ
. ?</w>
( मौजूद)</w>
( मूसा</w>
( बे</w>
( तो)</w>
( ता
( क़ुर
( आख़िर</w>
" निश्चय</w>
ड़ ा</w>
हो ता.</w>
सु पर</w>
साथ ।</w>
संभव तया</w>
सं कोच</w>
शि कारी</w>
शा प</w>
ल द्दा
मं डी</w>
बे न</w>
ब जाने</w>
प्रां तीय</w>
पर दा</w>
पक्ष कारों</w>
निकट तम</w>
नमू नों</w>
द ारी
द न,</w>
टा र</w>
जाय ें।</w>
चर ण
घ ण्
गुण गान</w>
गठ बंधन</w>
क्यों ?</w>
किरा ये</w>
औप निवेशिक</w>
एक् सेस</w>
इ नाम</w>
अत्या वश्यक</w>
अड् डे</w>
S A</w>
3 /
0 4
( t)</w>
" इस</w>
१ ३</w>
स्वी डन</w>
सी ंग</w>
सांख्यि कीय</w>
सब वर्सन</w>
सं रेख
श्रो ता</w>
वै क्
वृ क्ष
विध ्
विचार ा
वा च
री ति-
मुर् दे</w>
मुख िया</w>
महा विद्यालय</w>
बु क
थी म</w>
तिब् बत</w>
ढा ई</w>
जाए ;</w>
चम ड़े</w>
चंडी गढ़</w>
च ्यु
च ने</w>
गा या</w>
ग़ा यब</w>
को रिया</w>
ऑ यल</w>
एस ए
एक त्व</w>
आ भारी</w>
आ देश,</w>
आ च्छा
अर्थ शास्त्र</w>
अच्छ े-
à¤ ®</w>
al y
6 6</w>
( टी
ों के</w>
ार्थ ,</w>
होंगे ;</w>
स्टे शनों</w>
सु रे
सि कं
सर् जित</w>
सब क</w>
सं प्रेषण</w>
राजन यिक</w>
योज ना,</w>
मूर् तियां</w>
पूछा ।</w>
पी एम
परि हास</w>
ध -
द्र व्य
द्र वि
दो स्त
दु सरे</w>
दि ख</w>
दरवा जा</w>
थ ्र
थ र्
ते ज
क सरत</w>
और /
उर्वर कों</w>
आश्र ित</w>
अमि ताभ</w>
अब् बा</w>
अनुसं धान,</w>
अदा ल
अ स्थ
195 2</w>
सॉ फ्ट</w>
श्रे ण
वे स्ट</w>
व ण
लग े
रो मन</w>
राज् ‍य</w>
रवि वार</w>
मा ली</w>
मध्य स्थता</w>
बे श
बद तर</w>
फेफ ड़ों</w>
फि लि
पु त्र
पहन ते</w>
द् वेष</w>
दु कानों</w>
टै क्स</w>
चित्र ा
चंद्र मा</w>
गिरफ् तारी</w>
कॉपी राइट</w>
कॉ र
कै लि
कद मों</w>
क ली</w>
क मान</w>
औं धे</w>
अनु भव
अ जन
escrip tion</w>
es s</w>
स्वा मी
स्तु ति</w>
सुधार क</w>
शै लियों</w>
श मन</w>
वेद ना</w>
विश्वविद्या लय
लिए -
र र</w>
यु क्ति
मू र</w>
मि क,</w>
भे दों</w>
भुग ता
भ क्तों</w>
बिछ ौ
बना ।</w>
प्रवृत् तियों</w>
पु त
नि हाल</w>
धि कारों</w>
द्विती यक</w>
दे ह
ढ ा</w>
जे )</w>
छ ठा</w>
चे ष्टा</w>
गति शीलता</w>
खो ली</w>
कोर् स</w>
कन ्या</w>
एक )</w>
ए ग्री
उपबंध ित</w>
उन् हों
आ लेख</w>
अर्ध -
अ स्त
à¤ à¤¾</w>
t ar
3 8
200 8
ें गी</w>
हो ली</w>
सं यंत्रों</w>
शिश् न</w>
ल र
राज्य सभा</w>
र क</w>
मि कता</w>
मार् टिन</w>
म सू
भ ण्
बा ने</w>
बन् धक</w>
बद ला
ब ियों</w>
ब फर</w>
ब द्
प्रा ंग
प्रतिभा शाली</w>
प्र ताप</w>
न् ति
निभा ने</w>
न हा
ध्रु व</w>
द्य -
दीपा वली</w>
तुल्यका लन</w>
टि ल</w>
ट े,</w>
ज़ मी
छा त्रा
घुमा व</w>
ग्रा फी</w>
खि लौ
ख ली
उपकरण -पट्टी</w>
उ ड़ने</w>
उ च्छेदन</w>
उ च्चा
अल ै
अर्थ ों</w>
अने कों</w>
अनु शास
अ द्वै
ंग ि
on e</w>
F -
9 1</w>
6 ,</w>
12 0</w>
( ज
( एफ
स्मार कों</w>
सें ट्रल</w>
सराह नीय</w>
सं य
वि ष</w>
वास -
री करण</w>
राम मोहन</w>
रा .</w>
मूर् ख
महो त्सव</w>
मह ज़</w>
मक् कारी</w>
भ त्ते</w>
ब्रि ज</w>
बो ली,</w>
बनवा या</w>
प्रतिबिं बित</w>
प् ली
निर र्थ
धर् मी</w>
थ ्रे
तन् ना</w>
जी ता</w>
जाए )</w>
चुन ते</w>
चार् ल्स</w>
कार्य क्षेत्र</w>
एचटी एमएल</w>
इंजीनिय र</w>
आपूर् ति
ateg or
2006-0 7</w>
( जा
( ख़
‘ भारत</w>
२०० ७</w>
हा स्य</w>
हा थियों</w>
सॉ फ्टवे
सि खा</w>
सामग्र ियों</w>
साइ बर</w>
सर ा</w>
सचे तन</w>
संकु चित</w>
विवर णों</w>
विका सात्मक</w>
लो र</w>
मु ट्
मापद ंड</w>
मही ना</w>
भट् ट</w>
बे जब
बढ़ -
बड़ ा
फिन लैंड</w>
पै क</w>
पहुँचा ए</w>
ढूंढ ने</w>
टि कट
जान कार
जन शक्ति</w>
च लेगा</w>
ग् ले
गु हा</w>
गिड़गि ड़ा
कॉर् पोरेट</w>
कुंजी पट</w>
क़ र
ओ ड़ि
ई साइ
अह ं</w>
अ गु
x -
od e</w>
it .</w>
SS L</w>
R es
( उ
( इसके</w>
( 5
ह ंस</w>
स्त ूप</w>
सुन ना</w>
सहिष्ण ुता</w>
शी शे</w>
विष म</w>
विनो द</w>
विन म्रता</w>
व स्‍
रियास तों</w>
रिपोर् टों</w>
रि च
रि कार्
यु वकों</w>
य ंग</w>
मा नि
बू झे</w>
बु न
बा ली</w>
प्र स्थिति</w>
डिब ग</w>
जी )</w>
जार् ज</w>
जाये गी</w>
छि पाए</w>
छ ठी</w>
चिपका एँ</w>
चा चा</w>
च लाते</w>
गय ी,</w>
कै ले
कार्या लय
क ;</w>
ओ ं/
उद् दे
आया तक</w>
आंदो लनों</w>
आ एँगे</w>
अं डा
अ हा
२ ५</w>
हु ज़ू
स्था न
सो र्स</w>
से वी</w>
सु ग
सि ल्
सर् किट</w>
सम नु
स वालों</w>
शुक्र वार</w>
शब्द कूट</w>
वा लि
लिया ई</w>
लिय त</w>
राज्य -
मोह क</w>
मू त्र
मले रिया</w>
मक बरा</w>
बुढ़ा पे</w>
बु द्ध
बा य
बहि ष्कार</w>
बरा बर)</w>
बक् से</w>
फ् ले
प्रा णिक</w>
पोशा क</w>
पो तन्ना</w>
पुर्तगा ली</w>
पी ठों</w>
पी ,</w>
पवि त्रता</w>
पत्र कारिता</w>
पक ड़कर</w>
प ड</w>
ने पाली</w>
धा म</w>
दू क</w>
तौ रात</w>
तमा शा</w>
छोटी- सी</w>
छ वियाँ</w>
च रों</w>
गु नी</w>
गा यक</w>
क्षमा शील</w>
कुछ ेक</w>
कल म</w>
आ न)</w>
D E
- एक</w>
१ .</w>
ि त
हो ता
शिष ्यों</w>
शिकाय तें</w>
ले ते?</w>
लाभा न्वित</w>
ल ती
रू ढ़
राशि ,</w>
मो ड़े</w>
में ;</w>
मुझ को</w>
पूं छ</w>
पुरू षों</w>
पठ नीय</w>
प ारा
निर्या तक</w>
देख ि
दुरू स्त</w>
थ ॉ
टे )</w>
जा ग्र
जा ओं</w>
गर् भग
कु ष्ठ</w>
क मो
उन् ही</w>
इत्यादि ।</w>
आ ड़</w>
अस्पृ श्य
ubli c</w>
GN U</w>
( नि
ेंगे ।"</w>
स्को -
साइ टों</w>
स स</w>
श् लोक</w>
र म
मेघा लय</w>
मु ल
मालि कों</w>
मला मत</w>
बा जार
प्रको ष्ठ</w>
पि ला</w>
पाकि स्तानी</w>
पा ला</w>
निरा शा
दौ ड़ते</w>
दर् पण</w>
तत् त्वों</w>
ण् डर</w>
ढ ील</w>
जान बूझकर</w>
जाएंग ें</w>
जवा नी</w>
चुन ना</w>
चु म्ब
चु कौ
चार ,</w>
गा ते</w>
खौ लते</w>
ख़ै रात</w>
ख ना</w>
क्रे ता</w>
को ल</w>
कह ेगें</w>
उल फ़त</w>
इतिहा स,</w>
इ र
आवेद न
अं डों</w>
à¤ 
u er
t ur
st ar</w>
di str
( B)</w>
स् पूल</w>
सीख ते</w>
संभा ल</w>
शताब् ‍दी</w>
वे ली</w>
वं शा
रू .</w>
राज दू
या चना</w>
मॉ नी
भर ना</w>
ब्र ु
फ् स</w>
फिर ो</w>
प्र हार</w>
पुकार ने</w>
पार सी</w>
प ग
न् ति</w>
ध् द</w>
द स्त</w>
द म
त् तरी</w>
तल वार</w>
डे ढ़</w>
टू र</w>
जा ति,</w>
जल ीय</w>
जग म
च -
खंड ित</w>
कुटु म्ब</w>
कपड़ ों</w>
कंप नी
क प्
आ क्षेप</w>
अव तरण</w>
अभिलेखा गार</w>
अपेक्षा ओं</w>
अथ क</w>
अ श
um b
li b
W indow
7 00</w>
/ व्यस्त</w>
- जु
ह र्ष
सीमा एं</w>
सि ग्
विचार ,</w>
मे ल-
मे नान</w>
मुबार क</w>
माँ गा</w>
बैठ ा
बे रोजग
बे चा</w>
बा ह</w>
प्रत्यक्ष तः</w>
पद -
पड़ नेवाले</w>
प द्य</w>
दे वी-
दी न)</w>
तिहा न</w>
डें सी</w>
ड़ ी-
ज्ञान वान</w>
जड़ ें</w>
ग ूं
का व्या
कमा ने</w>
कठि नाइ
इम् तिहान</w>
अनौप चारिक</w>
अधी न,</w>
अक्टू बर,</w>
अं टार्
अ क्षमता</w>
i i)</w>
h el
en e
a s</w>
HEA D.</w>
5 9
( उसका</w>
" हमने</w>
हॉ )</w>
स्व ं
सेवानि वृत्त</w>
सा ध
सम् मति</w>
शीघ ्रता</w>
विराज मान</w>
वि लेख</w>
ले बना
लम् बाई</w>
राष्ट्र मंडल</w>
मग़ फिरत</w>
म /
बा ध</w>
फ़ार सी</w>
फर् नी
फ ज़ीलत</w>
प्रे म-
प्र ग
परिस्थि तियां</w>
पत् ता</w>
पड़ ताल</w>
निशा ना</w>
दूर दर्शन</w>
दा ंतों</w>
तौरै त</w>
ता मील</w>
तर्क संगत</w>
तर फा</w>
डू बो</w>
जोध पुर</w>
जो )</w>
जि लाता</w>
जा ना,</w>
जह ॉन</w>
ख़ ़ु
की ;</w>
क़ि बले</w>
औष धियों</w>
आ सन</w>
अनुकम्पा ओं</w>
ंग ी।</w>
ं की</w>
à¤¿à¤ ¤</w>
of t
ap p
S p
(व ही)</w>
(तौरे त)</w>
(खु दा)</w>
(ख़ा स)</w>
(क़ुर आन)</w>
(आज्ञा कारी)</w>
(1 8
( पैदा</w>
( देखो)</w>
( तबली
( ग़
( क्या)</w>
( क़ा
( आख़िरत</w>
" सलाम</w>
हस्त शिल्प</w>
सुना ता</w>
सु चार
स ती</w>
श् वास</w>
श् म</w>
वि लक्षण</w>
लो न</w>
लू स</w>
लाइ नों</w>
रख ना।</w>
मोहब् बत</w>
मे रु
मुं शी</w>
म ध्या
भाष णों</w>
प्रवि ष्ट
प्रती का
प्र सू
पी एम</w>
पहु ंचे
द्र िक</w>
दिखा ओ</w>
झार खंड</w>
जाय े.</w>
जाए ?</w>
ज म</w>
छु आ
कॉ म्
किस् में</w>
का ना
का ठ
कर् ता
उज् ज्
z il
SI O
Gener al</w>
C M
( T
‍ ध</w>
स्त ो
स् क्वा
सात वीं</w>
सर्वो परि</w>
समे ट</w>
सजा वट</w>
सका ः</w>
ष्ण कटि
व्यव साय
वि वाद
प्रति रूप</w>
प्रति बन्ध</w>
पैदा इश</w>
पीड िया
पी सी</w>
न् ड
नौ जवान</w>
द्र नाथ</w>
दर् य
दक्षि ण
तर स</w>
त ख़्
चि ड़िया</w>
गै सों</w>
गे ट
ख न</w>
कॉ ल
क '</w>
ए लि
उभर ती</w>
उद ारी
अधि निर्णय</w>
अंग ूर</w>
list box</w>
e ,</w>
d /%</w>
Licen se</w>
8 8</w>
5 3</w>
( बहुत</w>
( 1956</w>
'{0} '</w>
" )</w>
हथ कर
स्थ गन</w>
स्त म्भ
सा दे</w>
सम्मि श्र
सम् पादित</w>
ष े
शल्य क्रिया</w>
वांछ नीय</w>
रेश मी</w>
रु चि
मर्या दा</w>
मं चों</w>
बिग ड़</w>
बन् धु</w>
पी आई
पां जलि</w>
पा चन</w>
परि जनों</w>
पढ़ ो</w>
न ट
ध मनी</w>
ज़ ार
जटि ल
चौ ं
गोप नीयता</w>
गुण सूत्र</w>
खर् चे</w>
क्र मी</w>
कार्य पालक</w>
कांग्रे सी</w>
का बुल</w>
उपलब्ध ियां</w>
आति थ्य</w>
अनु रक्षण</w>
अ सुरक्षित</w>
à¥ 
ti l
gh ani
ghani stan.</w>
af ghanistan.</w>
@lab el</w>
24 5
( L
०० ०
ारा म</w>
हु ए.</w>
हिन्दु स्तानी</w>
स्टार् टअप</w>
सॉ ल्
सि स्को-
शि रा
व् ‍या
व लय</w>
व क्ष</w>
रु वा</w>
र क्षित</w>
मान नेवाले</w>
महारा ष्ट्र
बु किंग</w>
बर् मा</w>
फै क्स</w>
प्रशि क्षण
प्रमा णों</w>
प्र भारी</w>
पै ं
पुरा तत्व</w>
पांड ि
निर्दे शिका
निभा ता</w>
ना मी</w>
ड्यू टी</w>
जीव न,</w>
खु ला
ख ों
को -
कार े</w>
ओ वर</w>
एन ई
उल् लास</w>
उन्नी सवीं</w>
आजि ज़</w>
अनेका नेक</w>
अनुभ वी</w>
ंगी ण</w>
t ype</w>
it aly
P lease</w>
? ?</w>
6 8</w>
साहि ब</w>
सा गर
सहेजें ...</w>
